#version: 0.2
t h
i n
a n
y o
t o</w>
r e
th e</w>
e n
c o
e r
e a
in g</w>
yo u</w>
a t
a c
i s</w>
o r
o r</w>
a t</w>
s t
a p
o u
o n
an d</w>
v e</w>
i t
i g
e d</w>
a r
e l
f or</w>
yo u
a n</w>
r a
u s
m e</w>
e e
a l
o n</w>
T h
t i
en n
i t</w>
n o
e r</w>
t r
h a
l o
ra in
ig rain
l y</w>
h ea
you r</w>
ap p</w>
r o
e s
i s
e s</w>
i l
in t
m igrain
i n</w>
s u
w h
m a
th is</w>
h el
i c
l d</w>
J enn
ap p
c an</w>
o f</w>
ha ve</w>
Th an
hea l
. co
e v
@ heal
e n</w>
@heal int
@healint .co
e .</w>
o p
co n
it h</w>
s o</w>
p ro
m y</w>
th at</w>
w ith</w>
e c
u n
b l
Jenn y</w>
ou ld</w>
b u
d at
y @healint.co
k e</w>
w e</w>
w or
s .</w>
e t
ea s
b e</w>
no t</w>
at i
il l</w>
ar e</w>
a s</w>
' t</w>
a s
tr ac
e t</w>
d o
p or
l i
m e
H i</w>
c h
o o
n e
v er
Than k</w>
j enn
f u
jenn y@healint.co
p l
st ar
i m
in g
k ing</w>
a d
con t
s o
w ill</w>
ee p</w>
a y
w ould</w>
al ly</w>
hel p</w>
hel p
en t
u s</w>
h o
e x
ou t</w>
k s</w>
c h</w>
th er</w>
eas e</w>
co r
e ,</w>
W e</w>
s l
us e</w>
cont ac
c e</w>
bu t</w>
migrain e</w>
u p
d i
i f</w>
b ac
e ma
bl e</w>
u r
i l</w>
e m
no w</w>
jenny@healint.co m</w>
m u
I t</w>
or e</w>
g i
ho w</w>
' s</w>
er e</w>
re cor
contac t</w>
s i
ea r</w>
v i
e d
m o
li ke</w>
D ear</w>
up dat
an y</w>
f i
ema il</w>
trac k</w>
a ble</w>
im pro
su p
a y</w>
ee d
ver y</w>
on e</w>
co m
p er
s h
e st
e re
t o
sl eep</w>
por t
a b
at e</w>
wh en</w>
co u
w as</w>
m ore</w>
I '
a g
ou r</w>
er s</w>
P l
ti on</w>
a d</w>
ati on</w>
f f
app .</w>
re at</w>
q u
mu ch</w>
c t
y .</w>
p o
star s</w>
op e</w>
c re
a r</w>
d d
ti me</w>
por t</w>
f re
f or
g et</w>
et t
al l</w>
o u</w>
Y ou</w>
pro bl
Than ks</w>
Th e</w>
migrain es</w>
a l</w>
es .</w>
ig g
Th is</w>
r i
d o</w>
n 't</w>
s e
B u
s ,</w>
k now</w>
on s</w>
o ther</w>
d e</w>
c an
tr igg
Pl ease</w>
p h
dat a</w>
co un
bac k</w>
re vi
a in</w>
f in
gi ve</w>
fre e</w>
s t</w>
ne ed</w>
al l
: )</w>
wh at</w>
ev er
. .
fu l</w>
revi e
I f</w>
ou g
d ay
en t</w>
re s
d ev
l et</w>
f ro
l e</w>
us t</w>
th ing</w>
at t
es s</w>
ee n</w>
a ,</w>
y ,</w>
d is
wor king</w>
cou ld</w>
ee l</w>
d er
recor d</w>
ig h
f t
ac coun
ac c
g reat</w>
v ing</w>
est i
h ope</w>
fro m</w>
en d</w>
tr y</w>
ac h
ee p
on 't</w>
lo ve</w>
dd y</w>
hea d
ne w</w>
g g
so l
on .</w>
ch an
th an
t t
st ar</w>
pl ease</w>
d ing</w>
ab out</w>
r y</w>
hea r</w>
se e</w>
ha s</w>
M igrain
is su
a m
g oo
or ry</w>
me d
in st
el y</w>
ed .</w>
head ach
ma ke</w>
v ed</w>
es t</w>
do ct
b een</w>
I' m</w>
r at
sup port</w>
m any</w>
fu l
u ally</w>
f eed
s y
ti m
i en
g o
t a
re ally</w>
d et
chan g
er .</w>
bac k
s e</w>
b y</w>
Migrain e</w>
ing .</w>
accoun t</w>
ea r
n o</w>
j ust</w>
it 's</w>
an other</w>
f ac
Jenn y@healint.co
e m</w>
i d
wor k</w>
an t</w>
r e</w>
probl em
us ing</w>
ar d</w>
lo o
N o
in ce</w>
no t
un der
er y</w>
wor k
an y
u p</w>
impro ve</w>
m .</w>
a use</w>
do w
ic h</w>
w ay</w>
you !</w>
under st
m is
b ett
en d
w is
th ere</w>
med ic
l ad</w>
com m
h app
al so</w>
n eed
it y</w>
s ing</w>
p ain</w>
ou n
wh ich</w>
b e
lo g</w>
Bu ddy</w>
updat e</w>
can 't</w>
tr i
trac king</w>
y !</w>
a i
impro v
b ec
su gg
ec t</w>
to m
s ince</w>
ph one</w>
ea t
r on
as s
ff ere
cre ate</w>
underst and</w>
migrain es.</w>
Jenny@healint.co m</w>
ev en</w>
a u
lo c
it .</w>
so me</w>
fin d</w>
p u
sup port
w el
bec ause</w>
for m
k eep</w>
a il
s !</w>
acc ess</w>
: -
ev er</w>
you .</w>
co de</w>
es ,</w>
fu r
re c
revie w
I t
s orry</w>
em ent
than k</w>
st ill</w>
ad d
oug h</w>
f eel</w>
t .</w>
ad d</w>
f eat
trac k
ic e</w>
s p
e !</w>
help s</w>
help ful</w>
dev el
sugg esti
us ed</w>
ex per
exper ien
doct or
c a
on ly</w>
en ti
is t</w>
re mo
i th
bett er</w>
devel op
loo k</w>
igh t</w>
s er
ec tion</w>
a st
th e
eas y</w>
in d
trigg er
on ,</w>
t oo
probl em</w>
ay s</w>
d n't</w>
goo d</w>
u st
recor d
It 's</w>
it i
improv ement
ft er</w>
th er
re m
inst all
m an
es n't</w>
ha d</w>
no w
l at
mo st</w>
t ly</w>
:- )</w>
a m</w>
sh ould</w>
th en</w>
do esn't</w>
s end</w>
A l
jenny@healint.co m.</w>
m p
tim es</w>
migrain e.</w>
trigg ers</w>
s a
re n
mis sing</w>
A n
revie w</w>
re ct
lo ad
as t</w>
oug h
c us
si on</w>
ai ly</w>
in form
t ed</w>
in to</w>
app ,</w>
v er</w>
feed back
lo g
dow n
ch ron
ta ke</w>
st an
t h</w>
c e.</w>
il e</w>
sl eep
re port
@healint.co m</w>
dis cus
s cre
i z
c l
th an</w>
go ing</w>
th at
e b
pu t</w>
po s
w on't</w>
t s</w>
lo w</w>
a in
w ant</w>
w ith
d on't</w>
no ti
t ea
ph on
f ic
u re
Bu t</w>
sy n
th o
w ere</w>
r an
per f
ever y
rat ing</w>
C ould</w>
ag e</w>
d ay</w>
s ee
day s</w>
can not</w>
ur e</w>
su re</w>
wh o</w>
a .</w>
remo ved</w>
re qu
i d</w>
ass ist</w>
us e
pl e</w>
ing ,</w>
fur ther</w>
tri ed</w>
rect ly</w>
F eel</w>
h ard</w>
fi x
y ing</w>
g ra
es s
/ /
v en
tt p
h ttp
Y our</w>
: //
p ati
M y</w>
b est</w>
e p
l on
k eep
C an</w>
o int
th in
e -
so me
H ope</w>
ha ving</w>
oun d</w>
G reat</w>
er n
d aily</w>
wis h</w>
updat ed</w>
d ro
sy mp
W h
ing s</w>
D o</w>
us ually</w>
det ail
n t</w>
as si
V ery</w>
a fter</w>
p e
G oo
di rectly</w>
I' ve</w>
r it
app oint
) .</w>
fi x</w>
us ers</w>
Than k
b att
g lad</w>
ati on.</w>
lo t</w>
ma y</w>
t ing</w>
int en
.. .</w>
tr y!</w>
symp tom
l ast</w>
do es</w>
issu e</w>
ema il
e '
ti me
assi stan
feed back</w>
! !</w>
k es</w>
qu esti
p ar
ver sion</w>
th is
m e.</w>
op tion</w>
ch ec
app !</w>
in f
bu g
com pl
http ://
tea m</w>
g le</w>
mu l
feat ure
ent s</w>
di ffere
discus s</w>
l y.</w>
wh ile</w>
star t</w>
ful .</w>
ec i
ec ti
f ast
happ y</w>
d .</w>
migrain e
c ti
suggesti ons</w>
g e</w>
ac t
d e
perf ect</w>
en cou
o w
encou ra
S o</w>
ho w
con ven
add res
wel l
a w
see m
f ore</w>
requ i
G lad</w>
a v
f un
d s</w>
a ve</w>
w ard</w>
s im
th ough
re at
mul ti
it ,</w>
chec k</w>
batt ery</w>
g o</w>
th r
t ,</w>
o l
develop ers</w>
pe op
for ward</w>
u m
ett ing</w>
ex port</w>
in u
f f</w>
doct or</w>
it s</w>
S orry</w>
fi r
sol ve</w>
differe nt</w>
than ks</w>
headach e</w>
eb oo
di d</w>
re as
feedback .</w>
di dn't</w>
w rit
al low</w>
peop le</w>
need s</w>
on s.</w>
in d</w>
the y</w>
l l</w>
c ur
happ en
with out</w>
bu ddy</w>
at ed</w>
experien ce</w>
s el
noti fic
su ffere
w ea
g l
op ti
t ur
th ere
ear n</w>
i c</w>
Thank s!</w>
ar y</w>
inform ation</w>
l in
inten s
syn chron
cont inu
C h
sol u
ra sh
s ection</w>
too l</w>
sp eci
ati ons</w>
thin k</w>
use ful</w>
ti l</w>
ou s</w>
o ff</w>
chang e</w>
us er</w>
op en</w>
f e
act ually</w>
ou r
dev ic
day .</w>
app s</w>
recor ding</w>
re li
re comm
L o
R e
o m
help ing</w>
- star</w>
ever y</w>
E d
un til</w>
pos si
fix ed</w>
ex ac
p re
au tom
re .</w>
dis appoint
down load
ˆ _
ˆ_ ˆ
m on
g etting</w>
( ˆ_ˆ
tho se</w>
wel l</w>
S am
f ound</w>
improvement s.</w>
conven ien
medic ation</w>
doctor s</w>
in convenien
o ver</w>
multi ple</w>
eboo k</w>
m ?</w>
eas i
U n
A p
m ent</w>
el l
ma de</w>
No t</w>
cur ren
l ev
trigger s.</w>
en .</w>
contac t
wea ther</w>
Goo gle</w>
b ad</w>
s ays</w>
d es
f oo
wh y</w>
not es</w>
p att
problem s</w>
inf o</w>
bu g</w>
ran co
ep t</w>
en ,</w>
No w</w>
dow n</w>
Th ere</w>
ch at</w>
h ,</w>
ma il</w>
W ould</w>
o ver
ma kes</w>
any thing</w>
headach es</w>
att ac
ur ing</w>
track er</w>
sh are</w>
f ri
inst all</w>
ed ,</w>
d ,</w>
u l
ent .</w>
co me</w>
y ?</w>
c as
symptom s</w>
dat a.</w>
su n
s ig
not e</w>
you ?</w>
ag ain
H ave</w>
th em</w>
every thing</w>
ca us
acc ur
report s</w>
: (</w>
r u
ag ain</w>
scre en</w>
ar i
su ch</w>
feat ure</w>
ent er</w>
seem s</w>
m ea
intens ity</w>
ex t
s how</w>
a ke</w>
st op
all .</w>
loc ation</w>
contact @healint.com</w>
t y
m .
u ro
be fore</w>
est ed</w>
/ migraine
suffere r
sun g</w>
gi v
^ ^</w>
gra b</w>
tim e.</w>
t w
me /migraine
me/migraine buddy</w>
m. me/migrainebuddy</w>
http:// m.me/migrainebuddy</w>
c ri
i ,</w>
er ,</w>
J o
tur n</w>
fri end
ab il
improvement s</w>
sa me</w>
pro vi
en ough</w>
detail s</w>
tr ying</w>
c rash
help ed</w>
re ad
bug s</w>
p s</w>
lo w
d el
review .</w>
w ee
F or</w>
p us
wh at
ma j
s et</w>
n ever</w>
bu tt
k .</w>
Lo ve</w>
w ays</w>
dro id</w>
p res
at ing</w>
gi st
e l</w>
lo gg
ne uro
con n
trigger s,</w>
encoura ge</w>
that .</w>
o ft
keep s</w>
dev ice</w>
to o</w>
lat est</w>
s ever
o ff
help ful.</w>
cl u
d er</w>
ic k
reli e
maj or</w>
m or
T r
f r
now .</w>
e ?</w>
y n
this .</w>
n ing</w>
lon g</w>
bl e.</w>
ther wis
in clu
i st
star ted</w>
o b
k ind</w>
th ings</w>
r ight</w>
issu e.</w>
I' d</w>
po t
er r
pot enti
per i
ser v
it !</w>
addres s.</w>
ty p
n e</w>
in t</w>
i r</w>
a !</w>
problem .</w>
peri o
us e.</w>
iz e</w>
wor th</w>
oft en</w>
lo st</w>
mea n</w>
ful ly</w>
= )</w>
Sam sung</w>
lon g
fac ing</w>
fin it
al ways</w>
l dn't</w>
F ranco
well .</w>
ed ?</w>
Ap p</w>
ay .</w>
work ed</w>
stop p
s ett
you '
W e'
be ing</w>
U p
am oun
d on
ac h</w>
fun cti
i ve</w>
ex port
me an
ac ti
u all
re g
s ?</w>
fe w</w>
s how
chang es</w>
ag e.</w>
e- mail</w>
M e
the ir</w>
time ,</w>
v ely</w>
lo ad</w>
No t
m in
in v
b o
re ach</w>
k en</w>
fir st</w>
st am
p ly</w>
writ e</w>
un install
l it
J ust</w>
w e'
patt ern
fr ust
migrain es
k ed</w>
headach es.</w>
at ely</w>
re ad</w>
d u
ati on,</w>
L oo
ay ing</w>
A s</w>
(ˆ_ˆ )</w>
keep ing</w>
c ust
app ?</w>
C an
updat e.</w>
caus ed.</w>
av ail
t ou
m ess
inconvenien ce</w>
amoun t</w>
f ar</w>
rem ent</w>
s ecti
is h
thr ough</w>
impro ving</w>
.. .
some thing</w>
ev ent
requi rement</w>
I n</w>
pati ents</w>
migrain es,</w>
f ig
phon e.</w>
p ass
provi de</w>
l ess</w>
an no
a h,</w>
th er.</w>
review !</w>
et e</w>
vi a</w>
E as
pass wor
g reat
" .</w>
possi ble</w>
m en
ic ally</w>
ere d</w>
assistan ce</w>
finit ely</w>
Al so</w>
wor ks</w>
stopp ed</w>
Un install
f o
d uring</w>
wh ere</w>
s w
det ection</w>
su m
chron ic</w>
it y.</w>
is e</w>
er ing</w>
ec t
an d
support @healint.com</w>
e ff
tw o</w>
ex c
reas on</w>
ou t.</w>
email .</w>
y ear
re l
ing !</w>
fin ding</w>
ea ch</w>
rat ing.</w>
n igh
an ,</w>
N o</w>
im port
e :</w>
Ed it</w>
Can 't</w>
1 0
yo ne</w>
fac e</w>
devic es</w>
Eas y</w>
p ain
lo ved</w>
experien ce.</w>
ch ar
ati c</w>
it e</w>
l eep</w>
download ed</w>
curren tly</w>
b it</w>
w on
foo d</w>
h our
Up dat
no thing</w>
H ow
pro per
ind ic
de finitely</w>
sleep .</w>
Loo king</w>
po int</w>
on ce</w>
s ed</w>
i r
n ice</w>
us er
down load</w>
H i,</w>
gi ving</w>
ft h</w>
ou s
do ing</w>
m ent
id enti
exac tly</w>
fi ed</w>
er !</w>
b i
O n
lev el</w>
fi fth</w>
sol v
record s</w>
ne x
h ere</w>
a re
sufferer s.</w>
a k
o w</w>
star s.</w>
ma in</w>
i f
doctor .</w>
su ff
opti ons</w>
nex t</w>
D o
avail able</w>
5 -star</w>
mo re.</w>
work .</w>
trac ks</w>
F ac
A fter</w>
th em
record ed</w>
cust om
res p
in .</w>
ing ?</w>
I N
c al
ex pl
man age</w>
N O
C on
trigg er</w>
support .</w>
H ea
ic k</w>
H el
recomm end</w>
med s</w>
coun t
Franco is</w>
t reat
potenti al</w>
easi er</w>
ma z
di ary</w>
al read
e ed</w>
ati on
a x
loo king</w>
abil ity</w>
g u
An droid</w>
op e
import ant</w>
accur ate</w>
co l
sleep ,</w>
pl ay</w>
compl ic
c tion</w>
H ow</w>
fac ebook</w>
fun ction</w>
um b
long er</w>
l e
tr y,</w>
sim ply</w>
S h
me di
u r</w>
ri st
en try</w>
ope fully</w>
con si
solu tion</w>
r is
ic al</w>
An d</w>
f y</w>
butt on</w>
al on
int er
ou ldn't</w>
mu ch
fast er.</w>
me tho
k now
d ea
j o
resp on
rec e
fi c</w>
S ar
re s</w>
c .</w>
id ea
ever ,</w>
event uall
m il
T ri
D id</w>
eventuall y?</w>
Wh at</w>
al y
S leep</w>
speci fic</w>
an aly
what 's</w>
inclu ding</w>
alon g</w>
Th en</w>
rem ely</w>
lit t
as k</w>
tt y</w>
ful !</w>
ax y</w>
par t</w>
go t</w>
en c
day ,</w>
notific ations</w>
litt le</w>
it ed</w>
issu es</w>
tou ch</w>
support @healint.co
sever al</w>
O therwis
tr y.</w>
g .</w>
fig ure</w>
J u
suggesti on</w>
st o
questi ons</w>
bu dd
encoura g
autom atic</w>
ro s
un install</w>
th ough</w>
po int
tt ing</w>
autom at
tr ou
rec ti
s aying</w>
p ri
th en
ap o
s et
f l
S t
im medi
h ere
el l</w>
addres s</w>
th es
chan ce</w>
ca used</w>
lo se</w>
is n't</w>
cas e</w>
com ing</w>
ca using</w>
M ic
A m
n ight</w>
an n
s es</w>
fre qu
l ic
al axy</w>
s en
g e
thr ough
o me</w>
assistan ce.</w>
them .</w>
to p</w>
to ge
pus h</w>
chang ing</w>
attac k</w>
updat e,</w>
m ed</w>
app lic
support !</w>
cri p
t ec
Fac ebook</w>
phon es</w>
ous ly</w>
h igh
y et
problem ,</w>
medic al</w>
li st
w ake</w>
hour s</w>
fur ther
time stam
s a,</w>
feedback !</w>
ر ا
writ ing</w>
m i
so on</w>
ow n</w>
on al</w>
g in
ext remely</w>
a ff
though t</w>
sig n
b ro
th ing.</w>
some times</w>
A u
re tri
notific ation</w>
err or</w>
comm un
neuro log
migrain e,</w>
sol ving</w>
sh or
sett ings</w>
n ing,</w>
v ari
m ight</w>
ic es</w>
S u
sh u
help .</w>
goo .
goo. gl
goo.gl /
el ,</w>
re gist
! !!</w>
hel l
experien c
O ur</w>
bett er.</w>
pl ac
c i
a maz
not ,</w>
g ar
ch ,</w>
fast er!</w>
ed it
w ron
how ever</w>
ar k</w>
rec ent</w>
M ay
http:// goo.gl/
too k</w>
au l
inv est
u al</w>
ser i
r ing</w>
ful l</w>
disappoint ed</w>
st u
res et</w>
R ea
l ea
invest ig
in put</w>
e ve</w>
review s</w>
any more</w>
v ate</w>
man ually</w>
Otherwis e,</w>
" ,</w>
ver ti
ab ly</w>
need ed</w>
ex ist
relie f
lat er</w>
feature ,</w>
v is
rem ind
pattern s</w>
on e.</w>
over l
t al
op en
ad verti
des ig
l ast
igh t
help !</w>
v e,</w>
cal end
I n
t e</w>
re !</w>
con f
po se</w>
g r
re port</w>
cre as
m ,</w>
com p
giv es</w>
remo ve</w>
d s,</w>
Tri ed</w>
How ever,</w>
us .</w>
sig n</w>
point .</w>
Tr ac
synchron ize</w>
jenny@healint.co m?</w>
updat es</w>
mor ning,</w>
j ust
is h</w>
Jenn if
qu ite</w>
recomm end
it ?</w>
ne w
m !</w>
goo gle</w>
M ay</w>
neurolog ist</w>
sim ple</w>
lo gist
o me
in pu
f ol
t ain</w>
loc ation.</w>
T o
May be</w>
M any</w>
thes e</w>
now ,</w>
f e</w>
rec i
pre tty</w>
go es</w>
can t</w>
alread y</w>
suff er</w>
pus h
ma king</w>
det ect</w>
W or
star t
us es</w>
e th
wis h
app reci
س ت
د ر</w>
ern et</w>
dat e</w>
automat ically</w>
seri ous</w>
any more.</w>
updat ing</w>
requi res</w>
loc k</w>
el se</w>
pro c
il l
ish ing</w>
it em
t ely</w>
recti fied</w>
accoun t.</w>
E x
D aily</w>
o c
e a</w>
neuro logist
back .</w>
W ishing</w>
T o</w>
wh il
feature s</w>
h n
sol ved</w>
won der
with in</w>
ing s
compl ete</w>
work ing.</w>
f ar
curren t</w>
b as
secti on.</w>
happen ed</w>
an yone</w>
re lat
i k
ere d.</w>
A d
relie f</w>
p r
mon it
comm ent.</w>
at ch</w>
U S
K a
ee ,</w>
dd le</w>
crash ing</w>
Not es</w>
in s
bro ken</w>
M o
E S</w>
ther ,</w>
mi ddle</w>
mean s</w>
sel f</w>
ar ound</w>
c er
anno y
3 /
Me an
ser ver</w>
need ?</w>
expl ain</w>
ent ered.</w>
b et
tec hn
h t
ear ly</w>
We' re</w>
Do es</w>
' ll</w>
el y.</w>
ti ll</w>
U su
problem s.</w>
ind ly</w>
et c.</w>
we' ve</w>
install ing</w>
Usu ally</w>
opti ons.</w>
mon th</w>
en count
crash es</w>
bet w
dro p</w>
bi g</w>
acc ept</w>
you' re</w>
Bu dd
t s.</w>
techn ical</w>
show ing</w>
questi on</w>
exac t</w>
1 0</w>
giv en</w>
serv ices</w>
w an
ent ly</w>
betw een</w>
li k
con stan
ad just</w>
me ,</w>
help ful!</w>
n or
identi fy</w>
e w</w>
scre en
logg ing</w>
hea d</w>
you ,</w>
ra ther</w>
passwor d</w>
medic in
y et</w>
n ,</w>
e ther</w>
der ing</w>
R em
M ar
tr u
synchron iz
it ch</w>
g ave</w>
p ap
qu ick</w>
pro ve</w>
wh ether</w>
si ve</w>
perio d</w>
ic i
po w
for get</w>
an a,</w>
use ful.</w>
rist in
retri eve</w>
st ru
mess age</w>
lo sing</w>
al most</w>
add iti
m ent.</w>
lin e</w>
dea cti
. .</w>
s /
re install</w>
mess age.</w>
fin e</w>
as ks</w>
to ld</w>
1 -star</w>
on ?</w>
nigh t.</w>
R E
pos iti
Y es,</w>
t ra
r ight
possi ble.</w>
our n
lev el
d ec
a p</w>
se par
es si
c ause</w>
Jennif er,</w>
.. ..
install ed</w>
f ile</w>
S ince</w>
Pl ay.</w>
" S
track er.</w>
h er</w>
g alaxy</w>
for ce</w>
NO T</w>
per s
b ar
low s</w>
t ell</w>
syn c</w>
sel f
ou t
is .</w>
encourag ing</w>
conn ection</w>
con fir
uninstall ed.</w>
assistan c
through out</w>
sleep ing</w>
o th
h opefully</w>
Re cor
pl ay
in creas
Thank s.</w>
is @healint.com</w>
ec ting</w>
fur ther.</w>
apo log
year s</w>
wor r
qu ick
Wor king</w>
wor ri
int ernet</w>
c r
sp eed</w>
g et
ec ts</w>
con sum
mon th
friend ly</w>
u iti
ta ken</w>
sh e</w>
res ear
medic ations</w>
m id
fe el
On ce</w>
friend ly.</w>
ec ted</w>
H O
o therwis
inform ing</w>
ح ا
ب ه</w>
oth ers</w>
l ly</w>
en try.</w>
eas ed</w>
d iti
as king</w>
accur ately</w>
Rea lly</w>
K eep</w>
Au g</w>
em ent</w>
del et
complic ated</w>
aw es
don e,</w>
com es</w>
V er
Mean while</w>
cor rect
an sw
ou t,</w>
log in</w>
int uiti
du e</w>
cor n
al ,</w>
treat ment</w>
s e.</w>
p revi
f ai
t ested</w>
scre en.</w>
av o
ul ar</w>
again !</w>
ac k</w>
ecti on.</w>
continu ous</w>
commun ic
anno ying</w>
Wh en</w>
M ari
" Daily</w>
well !</w>
tal k</w>
solv ed?</w>
relat ed</w>
id ea</w>
fac ed</w>
es p
re ,</w>
develop ment</w>
d ark</w>
t er
noti c
fac t</w>
be fo
A L
un der</w>
serv ice</w>
record .</w>
pap er</w>
or y</w>
contac ting</w>
a me</w>
timestam ps</w>
F eb
solu ti
re al
neurologist .</w>
app ing</w>
adverti sing</w>
th or
chang e.</w>
Mic hell
Feb :</w>
mean time,</w>
conven i
reg ar
p ast</w>
o ld</w>
t apping</w>
solu tely</w>
record s.</w>
con c
great .</w>
constan tly</w>
an droid</w>
Sar ah,</w>
iz ed</w>
h ar
ac ros
issu e?</w>
in iti
for t
again .</w>
Pl ay
p ur
man d
L i
A mand
us e,</w>
export ,</w>
co d
that ,</w>
it y,</w>
is sa,</w>
h i
On ly</w>
R A
= D</w>
sett ing
re solve</w>
or ri
en ce</w>
del ete</w>
any th
ver si
n ed</w>
issu e,</w>
ett ings
a bl
though ts</w>
sto p</w>
se con
on !</w>
download ing</w>
Me g
v o
int ake</w>
d ed</w>
support@healint.co m?</w>
speci ally</w>
rel eased</w>
p er</w>
much !</w>
jenny@healint.co m!</w>
Updat e
Mo st</w>
Jenny@healint.co m?</w>
3/ 5</w>
ma y
m ig
comm ents</w>
[ Update
immedi at
Ju li
It s</w>
Hel ps</w>
load .</w>
j ourn
au to</w>
rece ive</w>
ent s.</w>
detail ed</w>
bo th</w>
ris k</w>
pro g
fic ation</w>
est .</w>
e .
c ap
wonder ful</w>
wh en
track ing.</w>
re e</w>
g en
I s</w>
Ed it
proper ly</w>
prog res
o .</w>
ma il
logg ed</w>
ettings ",</w>
eth ,</w>
ere st
ch ing</w>
L au
may be</w>
man ag
inform ation.</w>
wee ks</w>
port un
op portun
enti on
an ce</w>
so on.</w>
pow er</w>
p ect
load ing</w>
happen s</w>
Li ke</w>
An g
. Please</w>
t ell
star ting</w>
h ur
dat a
accoun t
3 -
when ever</w>
s m
li z
functi on
conc ern
U R</w>
then !</w>
th en,</w>
symptom s,</w>
s ?
ent ering</w>
S us
fac t
des cri
st ,</w>
s ed.</w>
opportun ity</w>
again ?</w>
Wh y</w>
wee k</w>
trou ble</w>
requ ested</w>
report ed</w>
pre v
m at
ht m
ell ent</w>
compl et
c lo
10 0
there fore</w>
c ra
sa ve</w>
email ing</w>
acti v
N i
B est</w>
B e
s ing
m ention
loo ks</w>
add ed</w>
Y O
Goo d</w>
un less</w>
r .</w>
monit or</w>
ea d</w>
d ru
corn er</w>
set .</w>
separ ate</w>
r s</w>
N ic
:- (</w>
re fl
eas y.</w>
J an
sh ar
ic a,</w>
dat a,</w>
rece i
continu al</w>
bug s.</w>
ad ding</w>
W ill</w>
L e
1 2</w>
or der</w>
k ,</w>
item s</w>
f t</w>
seem ed</w>
rem ar
re -
l earn</w>
ex t</w>
e ith
E liz
Ch ar
( ^
sum m
noti ce</w>
impro ved</w>
gen er
confir m</w>
typ es</w>
p in
le ft</w>
f il
eith er.</w>
ab solutely</w>
W end
su l
b r
analy s
us el
po st</w>
off er</w>
m y
indic ate</w>
in der
idea s</w>
eas t</w>
all ed</w>
Eliz ab
E mil
s ec
mo ment</w>
goo d.</w>
e g
ser ve</w>
remar k.</w>
l east</w>
fix ing</w>
easi ly</w>
don t</w>
crip tion</w>
user s.</w>
m s</w>
k ept</w>
fast er</w>
Ni col
L yn
Ap p
y thing</w>
work s.</w>
mis sed</w>
li m
i .</w>
con diti
K eep
ing "</w>
day !</w>
b ably</w>
NO T
see m</w>
m ally</w>
e y</w>
conf using</w>
al u
al lows</w>
Re gar
NOT ES</w>
so ,</w>
export ed</w>
ast e</w>
ap s</w>
M el
H a
tell ing</w>
re solved</w>
proper ly.</w>
n umb
Al l</w>
medicin e</w>
exist ing</w>
complic at
a il</w>
M i
v e.</w>
lo vely</w>
re p
rat ed</w>
pin point</w>
ent ly.</w>
] :</w>
Tr igg
r d</w>
deacti vate</w>
We' ve</w>
s een</w>
du ce</w>
d s.</w>
b ed</w>
as ked</w>
al er
st ant</w>
some one</w>
regist er</w>
recommend ed</w>
pro bably</w>
multi -
mig ran
con stant</w>
assistanc e,</w>
questi ons.</w>
min or</w>
li fe</w>
[Update ]:</w>
V E</w>
S ha
work ,</w>
rat ing
e- mail
develop er
cre ated</w>
b ing</w>
Pl ay</w>
ta king</w>
p t
lin k</w>
edit :</w>
di ff
calend ar</w>
W ish</w>
Juli e,</w>
stam p</w>
numb er</w>
er n</w>
en tri
(^ _
toge ther.</w>
l y
it ing</w>
anyth ing!</w>
1 7
(ˆ_ˆ ).</w>
w ouldn't</w>
ure .</w>
too .</w>
ta kes</w>
comm on</w>
appreci ate</w>
a ver
2 4</w>
patt ern</w>
me ant</w>
m b
k s.</w>
en jo
det ail</w>
continu ously</w>
su r
secon d</w>
il e
bu l
To o</w>
.co m
م ا</w>
ر ا</w>
ا ن</w>
to .</w>
synchron ise</w>
ra ,</w>
eci ally</w>
d e!</w>
any time</w>
a ft
p age</w>
lim ited</w>
b est.</w>
app ear
Keep s</w>
م ی
را ی</w>
ب رای</w>
ا ی
o m</w>
ic ul
esp ecially</w>
d rain
co n</w>
c y
c k
C ar
3 0</w>
on going</w>
fu t
ed !</w>
ad just
K indly</w>
re d</w>
help s.</w>
h oo
bl es
Michell e,</w>
goo d,</w>
diff icul
Budd y.</w>
Al so,</w>
( I</w>
ren tly</w>
l s</w>
l a
i con</w>
T on
v en</w>
en ce.</w>
cou ldn't</w>
S till</w>
trou bles
sp ea
sh ouldn't</w>
sen s
resear ch</w>
me mb
m ents</w>
int erest
enjo y</w>
co p
ac e</w>
Re qu
H opefully</w>
E ver
medic ation.</w>
lo t.</w>
headach e,</w>
fol low
fai r</w>
f ranco
sing le</w>
in e,</w>
aw ay
ati ons.</w>
tw ice</w>
problem ?</w>
loc k
H ad</w>
y s</w>
there .</w>
positi ve</w>
log .</w>
li ked</w>
i ma
ag no
un able</w>
troubles hoo
then ?</w>
sp ace</w>
or ing</w>
i fication</w>
g an
b el
E n
to m</w>
medic ation
logg ing.</w>
every th
every day.</w>
c u
all y.</w>
Emil y,</w>
typ e</w>
thor ough</w>
perf ec
get s</w>
reas on
batt er
H A
Ever ything</w>
star .</w>
pati ents.</w>
e .com
ou s.</w>
h orri
cer tain</w>
S w
S up
Elizab eth,</w>
w a
batter y.</w>
s ev
refl ect</w>
re memb
g one.</w>
bas ed</w>
t est</w>
spea k</w>
phon e?</w>
me mor
inclu de</w>
high er</w>
e z
d ur
1 6
l d
frust rating</w>
H as</w>
ti ps</w>
n ec
much .</w>
i p
far .</w>
encount ered</w>
O f</w>
Ju d
work !</w>
there ,</w>
su dd
mil li
il li
what ever</w>
syn c
sw itch</w>
star s!</w>
re tur
qu e</w>
on e,</w>
in ,</w>
end .</w>
d eep
apolog ise</w>
5 %</w>
pain .</w>
men u</w>
further ?</w>
communic ate</w>
b re
N ice</w>
ne ,</w>
f ill</w>
d ra
sup pose</w>
s ://
r are</w>
oun d.</w>
im port</w>
http s://
A S
you' ve</w>
tea m.</w>
symptom s.</w>
pur pose</w>
cop y</w>
c atch</w>
K ind</w>
How ever</w>
thin ks</w>
t ;
sen ding</w>
ru cti
inst ructi
h on
de f
col l
c lose</w>
at es</w>
W ere</w>
this ,</w>
memor y</w>
Am y,</w>
whil e.</w>
v ely.</w>
rec t</w>
questi on,</w>
immedi ately</w>
ima gin
difficul t</w>
al ity</w>
[ Edit
Th ere
quick ly</w>
further !</w>
devic e.</w>
E R</w>
D is
notic ed</w>
milli ons</w>
lea ve</w>
inconvenien ce.</w>
ati ve</w>
acti ve</w>
L is
sup pos
p ag
ment s.</w>
custom ize</w>
custom iz
st or
shor t</w>
op t</w>
ne g
k i
ever yone</w>
US T</w>
Trigg ers</w>
on line</w>
o k</w>
loc king</w>
Y ou
S D</w>
this ?</w>
sugg ested</w>
passwor d,</w>
e 's</w>
c rit
Sup er</w>
usel ess</w>
per form
n i
manag ing</w>
c ul
a ble.</w>
po or
perform ance</w>
l ear
issu es,</w>
ins ight</w>
e. g.</w>
a way</w>
T I
K at
J un
speci fic
ren ,</w>
proc ess</w>
previ ously</w>
plac e</w>
pl aying</w>
par ti
nec ess
migraines !</w>
ld nt</w>
eff ecti
devic es.</w>
del i
conn ection.</w>
awes ome</w>
account ?</w>
Hel p
ven 't</w>
re sul
poor ly</w>
otherwis e</w>
id ed</w>
er ally</w>
ent ,</w>
con su
annoy ing.</w>
Trac k
S P
9 .
ez es</w>
down .</w>
cap ac
capac ity</w>
back up</w>
abil ity.</w>
W i
S ome</w>
J UST</w>
Al i</w>
1 8
. 1</w>
un lock</w>
sim il
ea t</w>
deli ver</w>
Mari e,</w>
Jo shu
stor age</w>
medic ation,</w>
man ual</w>
h em
be gin
ann ah,</w>
Wi F
D i
w ay.</w>
uall y.</w>
st .</w>
ri d</w>
rat ing?</w>
journ al</w>
expl an
U sed</w>
! !!!</w>
sign al
lit erally</w>
level s</w>
go al</w>
as n't</w>
app s,</w>
4 %</w>
wron g
im ,</w>
d ep
P aul
HA VE</w>
tim es.</w>
o t</w>
il i
hea rd</w>
Joshu a,</w>
wor ds</w>
simil ar</w>
on s,</w>
lin t</w>
l .</w>
i ar
fix .</w>
back gr
Hea lint</w>
that 's</w>
it 'll</w>
day s.</w>
app -</w>
J ess
won t</w>
support ing</w>
iti que</w>
every thing.</w>
eff or
cr itique</w>
bre ak
Sus an,</w>
pro gra
man ually.</w>
hea ring</w>
begin ning</w>
user s,</w>
off lin
li ed</w>
indic ating</w>
functi on,</w>
d -
c k</w>
attac k.</w>
secti on,</w>
s low</w>
e- star</w>
do c
ch oo
W on't</w>
I m</w>
we' re</w>
v ar
p age.</w>
nigh t
n et
e gi
2 0</w>
vi ew</w>
that !</w>
h en
h and
f ying</w>
di agno
Not e</w>
Mel issa,</w>
z e</w>
scre en,</w>
push ed</w>
pro mp
frequ enc
desig ned</w>
ad v
Hea ther,</w>
t reat</w>
suffere r</w>
re duce</w>
pro t
net work
log s</w>
fact or
c c
back ?</w>
at a</w>
D ata</w>
updat e:</w>
though .</w>
st ays</w>
ser ver
pati ence.</w>
metho d
l y,</w>
R ac
P i
Meg an,</w>
s "</w>
men stru
in c
er s,</w>
caus es</w>
E ver</w>
un us
to t
on :</w>
m att
loc ation,</w>
f am
cas e.</w>
bo t
E r
D el
s ...</w>
h an
f ast</w>
chang ed.</w>
app ear</w>
amaz ing</w>
self .</w>
s ad</w>
ra in</w>
on )</w>
now ?</w>
investig ate</w>
i m</w>
headach es,</w>
Del et
D I
Ang el
v es</w>
star ?</w>
st ore</w>
solv es</w>
lat ely</w>
l ac
in complet
ig in
i con
here :</w>
franco is@healint.com</w>
explan at
A b
re co
ob tain</w>
l u
i pl
h and</w>
g a
explanat ory</w>
differe n
bot tom</w>
b ly</w>
and /
Un able</w>
yn ,</w>
yet ,</w>
specific ally</w>
ran k</w>
ipl egi
iplegi c</w>
investig ating</w>
improv ement</w>
frust r
last s</w>
lac king</w>
sel ect</w>
r y
inst ead</w>
inpu tting</w>
i e,</w>
dru g</w>
day s?</w>
bel i
al one</w>
ai d</w>
Sw ip
D eb
you' ll</w>
th en.</w>
s co
on set</w>
on ally</w>
mo ve</w>
lo gi
cou ple</w>
S ome
Jenny@healint.co m,</w>
J ay
B ri
remind ers</w>
re st</w>
l l
est er
continu e</w>
com pre
apo logi
* *
wh o
pati enc
patienc e!</w>
increas ing</w>
id .</w>
el y,</w>
e.com /
cre ating</w>
alread y.</w>
I T</w>
Ch ristin
Am y!</w>
y ester
s ick
pt an</w>
men tion</w>
identi fying</w>
h um
h ist
exc ellent</w>
doctor ,</w>
compre hen
co ur
Ch e
3 %</w>
w ill
that ...</w>
migraine ur
feel ing</w>
es s.</w>
am ,</w>
G ive</w>
" not</w>
whil e,</w>
wh ere
m n</w>
l an
fil e.</w>
conveni ent</w>
comm ent</w>
cod e.</w>
[Edit ]</w>
us !</w>
timestam p</w>
there 's</w>
shar ing</w>
sever ity.</w>
seem s.</w>
s it
overl aps</w>
necess ary</w>
Su gg
K ristin
sudd en
sudden ly</w>
shor t
re solving</w>
lik e.</w>
ha v
great ,</w>
appoint ments</w>
applic ation,</w>
a iting</w>
Regar ds,</w>
F ir
to day</w>
synchron is
instructi ons</w>
entri es</w>
e y,</w>
desig n</w>
applic ation</w>
Track er</w>
E mail</w>
D uring</w>
we' d</w>
opti on.</w>
lan gu
e-mail .</w>
char ge</w>
aver age</w>
Ver sion</w>
Sugg esti
Pl s</w>
J a
summ ary</w>
re ly</w>
ki p</w>
horri ble</w>
g rat
Fir st</w>
D on
C ind
Be fore</w>
st at
s kip</w>
pri v
or gan
oc cur
migrain e-
l a,</w>
jenn y
in ly</w>
disappoint ing</w>
def aul
P er
Car ol
5 -
wee k
synchronis ation</w>
star ts</w>
s h</w>
po st
mo re
form at</w>
act ual</w>
a ur
2 0
who le</w>
setting s.</w>
inv al
ing ing</w>
ad s.</w>
P at
L et</w>
vo te</w>
perf ect
fro m.</w>
ev ol
eed .</w>
doc um
O k</w>
L Y</w>
D r.</w>
st ic</w>
show s</w>
review ,</w>
pres sure</w>
htm l</w>
ful ,</w>
budd y?</w>
br inging</w>
ar ly</w>
ak e,</w>
adv an
C rash
AL L</w>
uninstall ing</w>
rememb er</w>
Che ers,</w>
( we</w>
و ا
ن ی
ف ا
ض ر</w>
ست ر
ستر س</w>
ست .</w>
س ی</w>
ز ب
زب ان</w>
ر ی
ر ن
د سترس</w>
خ و
حا ل</w>
حا ضر</w>
ب ی
ا ز</w>
آ ن</w>
ur g
re f
on ic
know n</w>
aw aiting</w>
S 5</w>
) ,</w>
w ar
us ive</w>
st s</w>
pres cription</w>
n a,</w>
lear ning</w>
in i
h u
h !</w>
goo gl
feature s.</w>
dea l</w>
ch .</w>
c le</w>
ad e</w>
Paul ,</w>
& g
" ?</w>
را ن</w>
load s</w>
interest ed</w>
foo ds</w>
et c</w>
chang ed</w>
avo id</w>
Updat e:</w>
Uninstall ed</w>
G alaxy</w>
w at
pattern s.</w>
n av
nav ig
in !</w>
frequ ent</w>
e ph
cra sh</w>
2 .</w>
&g t;
y s
sa fe</w>
idea ,</w>
consi d
answ er</w>
additi onal</w>
En gl
A t</w>
( which</w>
' t.</w>
this !</w>
t !</w>
sever ity</w>
pre f
p ris
o l</w>
need ed.</w>
ic ally.</w>
ed it</w>
conn ected</w>
bug .</w>
att ery</w>
analys is</w>
YO UR</w>
Recor ds</w>
O ne</w>
Engl ish
B attery</w>
1 .</w>
" B
sur pris
s at
reg ular</w>
r ate</w>
metho d</w>
ma l</w>
fig uring</w>
descri be</w>
an ds</w>
aff ect</w>
There 's</w>
uninstall ed</w>
s d</w>
inter face</w>
hu ge</w>
evol u
d r
an ta
ad .</w>
F ren
D on't</w>
w e
sev ere</w>
relief s</w>
potenti ally</w>
need s.</w>
mo re!</w>
migraineur s</w>
in complete</w>
frust rating.</w>
feedback ,</w>
el se
att enti
Play ,</w>
G o</w>
Con f
100 %</w>
through .</w>
sit u
s '</w>
perio d.</w>
evolu tion</w>
dur ation</w>
concern s</w>
Sh ould</w>
O ver
G o
Fren ch,</w>
English .</w>
vis i
th ree</w>
ta inly</w>
t est
st ay</w>
pain ,</w>
ou sl
mo de
gu ys</w>
ga ther</w>
d ach
acros s</w>
Th o
Le e</w>
K ell
Hea dach
D O</w>
C O
Bri an,</w>
wa it</w>
tr ol
toge ther
ob vi
mo ti
ha dn't</w>
feature .</w>
com fort
w ,</w>
si de</w>
recei ved</w>
nor mal</w>
m ind</w>
ir d</w>
happ en</w>
exc ited</w>
encount er</w>
eff ici
discus sion</w>
comfort able</w>
attenti on.</w>
Ton y
Franco is@healint.com</w>
tri c</w>
so on,</w>
inf o.</w>
fort un
discus si
cy cle</w>
at 's</w>
all y,</w>
advan ce.</w>
A P
? ?</w>
wat er</w>
track ,</w>
t em
report s.</w>
p rec
med s,</w>
en ding</w>
consid ered</w>
cer tainly</w>
aw ful</w>
p i
inconvenien c
ha ,</w>
char g
ac t</w>
N e
C E</w>
up gra
up ,</w>
troubleshoo ting</w>
stu ff
sat is
respon d
p op
m )</w>
et y</w>
enti re</w>
cor rectly</w>
app lied</w>
To day</w>
N L
H annah,</w>
5- stars</w>
regar ds,</w>
re download
redownload /
redownload/ update</w>
pro mis
le y,</w>
ic is
crit icis
Tr is
F it
D ar
signal s</w>
or i
me :</w>
la un
in ?</w>
high ly</w>
everyth ing?</w>
do ?</w>
cl in
b er
any thing.</w>
We' d</w>
W I
T im,</w>
Jenn y.</w>
In st
I G
visi ble</w>
var ying</w>
sufferer s</w>
si dering</w>
sa ved</w>
s ).</w>
qu ality</w>
perfec tly</w>
ome tric</w>
mor ning</w>
mo ck
grat e
en s</w>
d di
count less</w>
com pati
ar y.</w>
Sar a,</w>
L .</w>
Amand a</w>
AL LY</w>
" migraine</w>
umb er
tru e</w>
overl app
open s</w>
nor mally</w>
inder ".</w>
feature ".</w>
f ra
calend ar
c umber
bar ometric</w>
attac ks</w>
as pect
Tris h,</w>
S ettings",</w>
Rem inder".</w>
Nicol e,</w>
Con sidering</w>
"S ettings",</w>
" overlapp
" feature".</w>
s ear
s ad.</w>
remind s</w>
phon e,</w>
par amount</w>
ind a,</w>
hon est</w>
F e
v esti
vesti bul
th ous
thous ands</w>
situ ation.</w>
r un
pri or</w>
out !</w>
month s</w>
function ing</w>
cumber some</w>
bu t
Ver onic
RE ALLY</w>
M al
yet ?</w>
t s!</w>
su cc
sh i
obvi ous.</w>
n ess</w>
min e</w>
log in?</w>
li kes</w>
ex pect
bi as
appear s</w>
any more
Wh ich</w>
R en
A n</w>
.. ...
( also</w>
to day.</w>
tim es,</w>
stuff .</w>
respon ding</w>
relief ,</w>
re plac
ob serve</w>
intuiti ve.</w>
ha ven't</w>
grate ful</w>
ev ent.</w>
d re
ag o</w>
Uninstall ing</w>
Migrain es</w>
Lau ren,</w>
IN G</w>
H app
Fe b</w>
Er ica,</w>
B ar
tou ch.</w>
ter ri
surpris ed</w>
ro om</w>
res er
rat ing,</w>
over all</w>
need ing</w>
lo ,</w>
in ser
ic e.</w>
exc ept</w>
er "</w>
Jenny@healint.co m.</w>
Deb or
10 :</w>
st ron
show ed</w>
p ic
on ce.</w>
migraines ?</w>
m ust</w>
last ed</w>
it -</w>
inter active</w>
ch o
O N
Jud y,</w>
F B</w>
Carol yn
B el
worri es</w>
thin k.</w>
sign al</w>
pati ent</w>
open ed</w>
ol ate</w>
j ob
is olate</w>
improv e!</w>
g n
frequenc y</w>
fin ish
et 's</w>
ed ly</w>
compati ble</w>
avo ided</w>
aspect s).</w>
activ iti
acros s,</w>
T i
Go ing</w>
yet ...</w>
wron g.</w>
synchroniz e.</w>
screen s</w>
me !</w>
gl itch</w>
disappoint ment
clo se
applic ation.</w>
W ay</w>
Tony a,</w>
N ext</w>
Happ y</w>
Goo gl
Ex port
E specially</w>
x el</w>
worr y!</w>
w ever</w>
there d</w>
st able</w>
s add
sadd ens</w>
res po
respo m
respom ses</w>
ra .</w>
promis e.</w>
pl e,</w>
pl ay.</w>
method ically</w>
mention ed,</w>
ma de!</w>
is ,</w>
help s!</w>
go wever</w>
f rank</w>
f ail
en try,</w>
dec ent,</w>
cri ed.</w>
close "</w>
butt on.</w>
budd ing</w>
^ -
^- ^</w>
X L</w>
St ev
Pi xel</w>
Lis ha,</w>
Kristin a,</w>
E .</w>
Cind y,</w>
Bel inda,</w>
reser ved</w>
pag e:</w>
m es</w>
lo tt
intuiti ve,</w>
in k</w>
ev alu
d ?</w>
ab o
Jo se
Ex c
Char lott
Al though</w>
Ad d</w>
A s
A D
1 4</w>
wrong ?</w>
w ay
underst an
su b
st ra
soluti on.</w>
shu tting</w>
report !</w>
reas ons.</w>
or igin
k indly</w>
edit ing</w>
e or
dis co
amaz ing
Sha w
R I
Jose ph
C ur
C or
9. 0</w>
) !</w>
wish .</w>
t ext</w>
shi ft
re installed</w>
rating 😠</w>
per h
igh ted</w>
frust rating😠</w>
fra mes</w>
far ,</w>
cor rect</w>
c a,</w>
bett er
app :</w>
W e's</w>
S ally,</w>
M IG
MIG RA
Ch ron
ta p</w>
sens or</w>
play ed</w>
over view</w>
mid night.</w>
l etting</w>
initi ate</w>
inc id
do be</w>
disappoint ing!</w>
consu mp
comprehen sive</w>
aff ects</w>
adverti sed.</w>
a dobe</w>
You '
P S
MIGRA IN
Kell y,</w>
Ed ited</w>
Bar bar
A maz
~ )</w>
worr y,</w>
wee k.</w>
treat ment.</w>
shu ting</w>
re start</w>
mid -
matt er.</w>
indic ates</w>
ic ated</w>
er b
enti rely</w>
ed it.</w>
discussi on,</w>
det ec
de v</w>
cl ick</w>
ati vely.</w>
V al
Pat ch,</w>
AS AP
(^_ ~)</w>
( .</w>
" Export
tru ly</w>
sa ve,</w>
s ay</w>
replac ed</w>
re- enter</w>
promp ted</w>
over all.</w>
or .</w>
op ing</w>
offlin e,</w>
o ,</w>
mid- report</w>
int eg
incomplet e.</w>
imagin e,</w>
heal th</w>
giv e,</w>
fre ezes</w>
form ation</w>
finish ed</w>
export .</w>
dis appears</w>
delet es</w>
cu tting</w>
consump tion</w>
consi dering</w>
c at
bu ddi
attac ks.</w>
add :</w>
WiF i.</w>
Wend y,</w>
T ab
Suggesti on:</w>
S ad
P re
N ew</w>
L ili
Jun e</w>
E D</w>
Al ex
:- (.</w>
17 :</w>
s op
perio d
iar i</w>
feature s,</w>
ext ern
extern al</w>
exist s"</w>
det ect
custom er</w>
complicat ed?</w>
clo sed.</w>
chec ked</w>
c ard</w>
Val lo,</w>
U R
T O</w>
S .</w>
Debor ah,</w>
D r</w>
Ch rist
"Export ".</w>
" this</w>
year s.</w>
year s,</w>
wron g</w>
what s</w>
well .Please</w>
time !</w>
sop hist
sophist icated</w>
solv ed.</w>
shift s.</w>
re- installing</w>
pu ll</w>
ough .</w>
on set.</w>
inten si
im pl
g are
f it
email s</w>
complicat ed.</w>
back !</w>
R E</w>
Mar gare
M E</w>
Ch iari</w>
Carolyn ne,</w>
A Y</w>
vi de
vide o</w>
um er
u d
rain s</w>
po p</w>
origin al</w>
neg atively.</w>
el se.</w>
ch ed</w>
ar g
analy ze</w>
aler ts.</w>
UR ING</w>
Rea d</w>
M O
Jess ica,</w>
E ven</w>
D URING</w>
C A
ASAP !</w>
3 h</w>
2 -star</w>
(ˆ_ˆ )!</w>
( at</w>
up s.</w>
umer ous</w>
s ent</w>
rel ease</w>
prec ise</w>
perio ds</w>
p ing</w>
ou ldnt</w>
nigh t,</w>
n ame</w>
hur ts</w>
happen ,</w>
fi d
ev ing</w>
end s</w>
em p
eas e,</w>
data ?</w>
con fid
bo thered</w>
ar oun
app a
ac tion</w>
TI ON
Pre tty</w>
Not e.</w>
Joseph ,</w>
Help ful</w>
C ro
16 7
. S
us ing.</w>
un locking</w>
umb .</w>
there !</w>
t en</w>
sec ure.</w>
sa me
resul ts.</w>
pres su
n umerous</w>
lo st,</w>
lik ely</w>
l ing</w>
inten sive</w>
fo re
en sure</w>
d umb.</w>
customiz ation</w>
co incid
b oring</w>
Sh e</w>
Ren ee,</w>
RE M
O P
Mal formation</w>
MO RE</w>
Cro w,</w>
CA N</w>
Barbar a,</w>
5 mn</w>
.S .
( your</w>
x 2</w>
suppos edly</w>
same ....
same.... what</w>
retur n,</w>
po ll
poll en</w>
passwor d?</w>
on set
off -</w>
multi- devices</w>
multi- account</w>
intensi fy</w>
inpu ts</w>
hem iplegic</w>
happen !</w>
functi ons</w>
fi el
f ake</w>
f aff
faff ing</w>
exac erb
exacerb ating</w>
ement .</w>
email ed,</w>
d- uninstalled.</w>
coincid ence</w>
c t</w>
but :</w>
back ups.</w>
aroun d-uninstalled.</w>
appa rently</w>
acti vely</w>
Z Y</w>
V ES</w>
Up set</w>
Uninstall ,</w>
US ED</w>
TION S.</w>
Stev e,</w>
SP L
SPL AY</w>
Requ ested</w>
Rem o
RI VES</w>
REM IN
REMIN D
REMIND ER</w>
RA ZY</w>
PS -
PS- x2</w>
OP TIONS.</w>
N eed</w>
MIGRAIN E.</w>
K e
Jenn a,</w>
J essi
HO W</w>
HO UR</w>
G i
Fac eboo
DI SPLAY</w>
D rains</w>
D RIVES</w>
Cor y,</w>
C RAZY</w>
AD JUST</w>
vis it</w>
tra il</w>
test ing</w>
sugg est</w>
reco gn
re al</w>
period ).</w>
n .</w>
just ification</w>
how ever,</w>
do ses</w>
conn ecting</w>
c at</w>
befo re,</w>
aw are</w>
are ly</w>
Uninstall ing.</w>
Some times</w>
N or
Goo d,</w>
9 5%</w>
vari ation.</w>
upgra de</w>
up d
tr ust</w>
s am
record s?</w>
pri or
overl ap</w>
min us</w>
medication s...</w>
know ,</w>
jenny @healint
jenny@healint com
jenny@healintcom ?</w>
hi ding</w>
factor s'</w>
ere e!</w>
er as
discus s.</w>
di et</w>
descri bing</w>
bu t,</w>
Jay e</w>
Charlott e,</w>
.... only</w>
underst and/
on ly.</w>
o k
mul t
list en.</w>
item s.</w>
hel l</w>
frequ ently.</w>
event s,</w>
en se</w>
dra g</w>
develop ing</w>
concern ed</w>
butt on)</w>
b bing</w>
any time.</w>
aft er
P ain</w>
Lili ana,</w>
E ile
C om
4 .</w>
understand/ solve</w>
sh ouldnt</w>
server "</w>
s? ?</w>
problem atic</w>
phon es,</w>
m g</w>
log ...</w>
know s??</w>
email ed</w>
c alled</w>
annoy ed</w>
S ense</w>
K ik
K eree!</w>
H ey</w>
1 2
" problem</w>
you rs</w>
wish ed.</w>
versi on.</w>
ver .</w>
upd gra
to -
recei ving</w>
proc eed.</w>
inter fac
heal int
great ly</w>
gr ap
er c
eor k</w>
dec reas
amazing ....only</w>
Tri ptan</w>
S y
R arely</w>
Mar y
Kik i,</w>
G P
Eile en.</w>
Dis played</w>
2 6
2 4
100 mg</w>
" Triptan</w>
thin king</w>
start ed.</w>
start /
star s?</w>
rep et
repet iti
pers onal</w>
op en.</w>
mult i</w>
mo ment.</w>
migrain e!</w>
lu ck</w>
lo y
ing :</w>
ha s
ag re
O ct</w>
Margare t,</w>
I' ll</w>
C in
( not</w>
tr y?</w>
tr a</w>
t ed.</w>
sam sung</w>
remind er</w>
prior ity</w>
phon es.</w>
not !</w>
l ight</w>
k ind
headach es
en tion</w>
day 's</w>
comp any</w>
chang es.</w>
cat eg
app s/
accoun ts</w>
Sh ar
IN ,</w>
H al
G A
GA IN,</w>
Delet ing</w>
Cin ease,</w>
An y</w>
A GAIN,</w>
(^_ ^
track .</w>
t ren
star !</w>
sl ept</w>
s crip
s .
organ ized</w>
on s!</w>
ok ay</w>
new s</w>
n or</w>
n am
mode l</w>
m ist
email ,</w>
e /
choo se</w>
att ention</w>
at ed.</w>
St eph
L ar
Com pl
versi ons</w>
up ti
trol l
run ning</w>
pl an
network )</w>
dis mis
b other</w>
abil a,</w>
Nor mally</w>
N abila,</w>
Hal ey,</w>
18 .</w>
wel come</w>
updgra ded</w>
that .Please</w>
su gar
stu ff</w>
sel l</w>
scrip t</w>
par se</w>
mat ching</w>
lo t!</w>
is es</w>
immediat ly</w>
i e!</w>
htm l.</w>
gra bbing</w>
gener ic</w>
fr action</w>
fo c
ex tra</w>
e y
disappoint ing.</w>
des p
cra z
correct ed</w>
confid enti
agre ed</w>
aft er.</w>
Wend ee,</w>
Ke ith</w>
K im
B y</w>
7 .1</w>
17 ,</w>
1 9
" sleep</w>
us ,</w>
troll er</w>
repetiti vely</w>
re /
o ther
it self</w>
h rs</w>
e ...</w>
desp ite</w>
cl ust
No v</w>
Cur rently</w>
Con troller</w>
App Controller</w>
Amaz ing</w>
Al ys
& l
yester day's</w>
to day,</w>
synchroniz ation</w>
short ly.</w>
reason ably</w>
rash ,</w>
previ ous</w>
onset "</w>
migraines ...
here .</w>
gu ess</w>
googl e.com/
for .</w>
exc essi
excessi vely</w>
ex ec
exec u
every day</w>
drain ing</w>
docum ent</w>
dismis s.</w>
dis playing</w>
apolog ises</w>
al t
I la,</w>
A rash,</w>
A 7</w>
3 .</w>
. google.com/
" Pain</w>
wan ted</w>
w om
sup er</w>
sto re/
store/ apps/
store/apps/ detail
store/apps/detail s?
store/apps/details? id
store/apps/details?id =
store/apps/details?id= com
store/apps/details?id=com .
store/apps/details?id=com. healint
store/apps/details?id=com.healint .
store/apps/details?id=com.healint. migrain
store/apps/details?id=com.healint.migrain ea
store/apps/details?id=com.healint.migrainea p
store/apps/details?id=com.healint.migraineap p</w>
s :</w>
reason able</w>
prev ent
play .google.com/
play.google.com/ store/apps/details?id=com.healint.migraineapp</w>
need ed?</w>
nam e.</w>
k !</w>
https:// play.google.com/store/apps/details?id=com.healint.migraineapp</w>
er ri
c all</w>
befo re.</w>
M ore</w>
L at
C l
; )</w>
sm all</w>
si p
sip per</w>
s or
s -</w>
qu it</w>
otherwis e.</w>
l y!</w>
inform ation
i res</w>
fore ver.</w>
expect ations.</w>
execu ted.</w>
e finit
T ar
Requ ires</w>
Mary ana,</w>
J ac
Compl et
Alys sa,</w>
suffere d</w>
ou d</w>
o s
mo ving</w>
initi ally</w>
ind efinit
indefinit ely,</w>
in di
happen ing</w>
di recti
away -</w>
a head
Tho se</w>
Mic ha
D en
Complet ely</w>
Char ity,</w>
Al l
tea m!</w>
reli ability.</w>
o p</w>
n ess
mo v
list "</w>
indi vi
e i
devel op</w>
contact @healint.co
ch at
YO U</w>
M y
Ha ving</w>
3 1
ver ification</w>
understan ding</w>
tot al</w>
p aste</w>
on -
mist ak
go tt
consum es</w>
be come</w>
al k</w>
O r</w>
M ed
3- 4%</w>
ur n</w>
tr an
tec h</w>
re pres
n s</w>
l e,</w>
e x</w>
crip ti
automat ically.</w>
analys is.</w>
Lar issa,</w>
L or
D a
w ed</w>
though t.</w>
pro to
prev ent</w>
pressu re.</w>
mo de!</w>
lo s
inf o
h .
h. a.</w>
gott en</w>
follow ing:</w>
foc us</w>
b ea
as leep</w>
T urn</w>
K ati
D es
A w
3 :
"S et</w>
wom en,</w>
track ing"</w>
st ic
scre wed</w>
migraines "?</w>
m inu
fut ure.</w>
directi on,</w>
cour se</w>
consi st
conf used</w>
ag u
Wh ere</w>
Swip e</w>
- hand</w>
" doesn't</w>
well ,</w>
v agu
up ted</w>
tran s
s e,</w>
kind a</w>
ing ly</w>
im pres
f el
ent re.</w>
ed -</w>
e !!</w>
cho ices</w>
au g
Mi re
A m</w>
5 *</w>
" attack</w>
use ful!</w>
ty pe
right -hand</w>
pr int</w>
pl eas
lo ts</w>
compl ex</w>
anta stic</w>
all ,</w>
a kes</w>
O ther</w>
GP S</w>
Exc ellent</w>
E m
A sh
y es,</w>
sco re!</w>
respon se</w>
ran ge</w>
pro file</w>
pr im
pers on
m ess</w>
illi ant</w>
i 'll</w>
en ing</w>
d e.</w>
cul arly</w>
T alk</w>
Jenn y
Gi ven</w>
F ri
wea ther,</w>
v ered</w>
typ es.</w>
ther ine,</w>
th ing
stop s</w>
report ed-</w>
prim ary</w>
o f
n on-
long ?</w>
k now.</w>
in .co
h it?</w>
g ain</w>
dro me.</w>
cul ation</w>
cal culation</w>
anymore -</w>
and ra,</w>
after thought.</w>
Jenny @heal
Jenny@heal in.co
E S
Aw es
sa ving</w>
rec ently</w>
read ing</w>
progres s</w>
ob serv
moti v
migraine- free</w>
ment !</w>
f it</w>
effici ent</w>
ca re
apologi es</w>
Trac king</w>
Th ey</w>
Chron ic</w>
where .</w>
though t
than k
progra m
parti cularly</w>
inpu t.</w>
ick i,</w>
has n't</w>
frustr ation</w>
comp li
coll ect</w>
cl oud</w>
aw ay.</w>
appreci ated</w>
ac ur
ac u
Ad am,</w>
A re</w>
5 ,</w>
see ing</w>
requi re</w>
recogn ize</w>
hum id
el y!</w>
creas ingly</w>
aug ht
ar t</w>
and ra.</w>
T erri
M e</w>
Jan e,</w>
In creasingly</w>
Fri day</w>
Ang el,</w>
5 )</w>
wh y?</w>
w atch</w>
ry st
provi ded</w>
observ ations</w>
metho ds</w>
lo ving</w>
information !</w>
gener al</w>
ex am
clin ici
beli eve</w>
W ith</w>
U se
Recor d</w>
M Y</w>
A M</w>
" button</w>
us ed.</w>
trans f
off ,</w>
n early</w>
lea ding</w>
g ly</w>
ext re
et s</w>
disappointment ?</w>
d aught
cust om</w>
budd y
bu gg
Updat e</w>
Sad ly</w>
J as
J .</w>
Den is
Angel .</w>
( Samsung</w>
vestibul ar</w>
up on</w>
trigger s!</w>
th us</w>
reli able.</w>
ra s</w>
or s</w>
mat ch
grap h
extre me</w>
erc ing</w>
cor rel
consi der</w>
b ad
appear .</w>
an y.</w>
W ell</w>
Veronic a</w>
Ka thr
F eed
y ear</w>
v ated</w>
support@healint.co m,</w>
suff ering</w>
shar p</w>
ro w</w>
right !</w>
pers on</w>
now "button</w>
int ake,</w>
en ough.</w>
en g
ell s</w>
dro me</w>
do s
develop ed</w>
deacti vated</w>
continu ousl
ch e
be comes</w>
b ring</w>
an ti
Re bec
work ing,</w>
v alu
ur ity</w>
soluti ons</w>
sm oo
sec urity</w>
retur ns</w>
record ings</w>
new er</w>
mis leading</w>
los s.</w>
load ed</w>
li f
is @healint.co
fol low</w>
doctor /
doctor/ neurologist.</w>
differen ce</w>
char t</w>
chang e,</w>
cas es</w>
break age</w>
au to-
app ...</w>
acur ately</w>
acu tely</w>
Z o
W ith
Uninstall ed.</w>
Th at</w>
T ells</w>
Lau ra
Ka th
K ept</w>
IN G
( 3</w>
stat us</w>
st range</w>
medication s,</w>
int err
ill s</w>
igh ly</w>
ha b
feel s</w>
err ing</w>
d y</w>
cre ation</w>
co ach
c y,</w>
c el
app ro
ain a,</w>
activ ated</w>
Rac hel
M akes</w>
H ighly</w>
D id
Christ el,</w>
3 *</w>
"B other</w>
you :</w>
wh eel</w>
up .</w>
terri ble</w>
stron gly</w>
so .</w>
smoo th
si ons</w>
ru n</w>
r ound.</w>
lock ed,</w>
k o,</w>
jenny@healint.co m,</w>
intens ity.</w>
ic e,</w>
fin ish</w>
cas es.</w>
b rain</w>
b locked,</w>
ac y</w>
T am
In t
入 力
し い
wor ds.</w>
ter ms</w>
stopp ing.</w>
regar ding</w>
p ick</w>
need !</w>
info ?</w>
immediat ely!</w>
es id
else where.</w>
disco vered</w>
day ,
crash /
crash/ loss.</w>
c ar
bea ra
be g
b c</w>
additi on</w>
Use ful</w>
Nicol e!</w>
L aur
G w
toge ther</w>
rem end
perfect ly.</w>
notic es</w>
l int
ho me</w>
fortun ately</w>
doctor s.</w>
cl ic
cl early</w>
ci p
categ ori
c are</w>
b en
ag es</w>
S 5,</w>
Lat er"</w>
Do ct
B ack</w>
0 %</w>
vari es</w>
up s</w>
un beara
u m</w>
t remend
push y</w>
pro f
notific ations.</w>
intens ity,</w>
i ly</w>
h e</w>
dis abl
defaul t,</w>
cy cl
b us
avail .</w>
are a
ad ap
L et's</w>
K rist
K .</w>
Jo cel
Headach es</w>
5 0</w>
v ays</w>
t un
support@healint.co m.</w>
sp in
spin ning</w>
pati ence</w>
new s.</w>
fail s</w>
ex p
ev a,</w>
don e.</w>
detec t.</w>
con cus
clic king</w>
che k</w>
backgr ound.</w>
auto- detect</w>
aul at</w>
ass ess</w>
app s.</w>
an o
al vays</w>
You' re</w>
S aulat</w>
Per f
Ka therine,</w>
I eva,</w>
Gw en,</w>
G u
Dis appoint
Christin e,</w>
Alex andra.</w>
9 0%</w>
you r
y '
suggesti on.</w>
st ack</w>
self ,</w>
plan s</w>
ow n
out ?</w>
our ce</w>
on e?</w>
notific ation.</w>
me ?</w>
k inder
kinder gar
kindergar ten</w>
is o
in tr
h ate</w>
gu ess
for um
err or
diagno s
c s</w>
bad !</w>
att emp
a ren
W asn't</w>
Sar a
No ti
Kim ber
K el
E V
Disappoint ing</w>
B ec
All aina,</w>
4 .1</w>
will ing</w>
unbeara ble.</w>
un t</w>
un fair</w>
the y'
so ci
s po
s low
ri ve</w>
rep eat
r ly</w>
prof essi
pro per</w>
my self,</w>
last ing</w>
jo b</w>
for gotten</w>
fiel d,</w>
es e</w>
er i
do g</w>
cripti ons</w>
b eat</w>
ano ther,</w>
al .</w>
a f
With out</w>
Th ese</w>
S 4
Le ko,</w>
Kathr yn,</w>
Cl ai
Amand a.</w>
2 7</w>
wan ts</w>
suggesti ons,</w>
sear ching</w>
program m
por tion</w>
oo k</w>
menstru ation</w>
li ve</w>
l ate</w>
increas e</w>
icon .</w>
ha ust
end ed</w>
en able</w>
d es</w>
cip ate</w>
ben e
b il
Tar a,</w>
O K.</w>
Don n
Dar ci
C ryst
B esid
5 .</w>
so on
ren dering</w>
recomm ending</w>
re solved?</w>
rating -</w>
p aid</w>
op en,</w>
not .</w>
my self.</w>
month s,</w>
menstru al</w>
medicin es</w>
k id
ing /
identi fied</w>
humid ity</w>
ex haust
es s,</w>
eat s</w>
co ol</w>
care ful</w>
an th
ag g
a !!</w>
Lyn n
Inst alled</w>
18 th</w>
1 *</w>
ur o</w>
un fortunately</w>
u ma
typ es,</w>
track er,</w>
time "</w>
th ings
st ep
pi g</w>
min s</w>
migraine buddy
match /
match/ inval
match/inval id.</w>
k ills</w>
in ea</w>
improv e,</w>
immediat ely.</w>
fl at</w>
ext en
ep iso
el usive</w>
ee ms</w>
diagnos is</w>
delet ing</w>
d ually</w>
d em
concus sions</w>
coll ecting</w>
b locking</w>
ation "</w>
assistanc e:</w>
answ ering</w>
an e.</w>
ahead !</w>
Sam anth
S 4</w>
Fit bit</w>
Do cs</w>
Au g.</w>
wan ting</w>
urg ently</w>
uninstall .</w>
uma ~</w>
trigg er.</w>
tra uma~</w>
stra ight</w>
smooth ly.</w>
sick ening</w>
re ply</w>
ow ,</w>
on y
neg ative</w>
ma ,
ma, concussions</w>
head ;</w>
g ust
dru g.</w>
drain ed</w>
doctor s,</w>
detect or
co ma,concussions</w>
chang es,</w>
bl unt</w>
b s.</w>
af .
af. uninstall.</w>
abl e,</w>
T E</w>
S eems</w>
S ame</w>
Jocel yn,</w>
Gu inea</w>
D own
D e
Crash ed</w>
2 8
* post</w>
" free</w>
will .</w>
ud e,</w>
tal king</w>
sa f
saf ety</w>
ris k,</w>
regist er.</w>
ran d
prot ection.</w>
priv ile
privile ge</w>
potenti al,</w>
parti cipate</w>
or r
not ed,</w>
langu age</w>
is@healint.co m)</w>
inval id</w>
here 's</w>
h es
hes it
friend ly!</w>
friend ly
fri end</w>
email ?</w>
ei ther</w>
ear ,</w>
detector '</w>
count s.</w>
correl ation</w>
contact@healint.co m.</w>
b log</w>
Wh at's</w>
Rem ark</w>
Rac hell
R ude,</w>
O N</w>
Jac qu
H ere</w>
H ate</w>
3 ,</w>
' automatic</w>
ی ن</w>
ی سی</w>
گ ل
گل یسی</w>
گ رن
گرن ی</w>
ک ه</w>
ک م
کم ک</w>
ک ر</w>
چ ن
چن د
چند ین</w>
وا نی
وانی د</w>
وا ری
واری م</w>
ه ان</w>
نی ست.</w>
ن گلیسی</w>
ن م</w>
می گرنی</w>
می د
مید واریم</w>
م ی</w>
م ه</w>
م خ
مخ ت
مخت ل
مختل ف</w>
م ای
مای ل</w>
م ا
ما ران</w>
ل ا
لا م</w>
فا ر
فار سی</w>
فا د
فاد ه</w>
ط ری
طری ق</w>
ش کر</w>
ش ما</w>
ش ب
شب نم</w>
ست فاده</w>
س لام</w>
س را
سرا س
سراس ر</w>
رن ا
رنا مه</w>
ر ک</w>
د رک</w>
خو د</w>
خو بی
خوبی !</w>
ج هان</w>
ت وانید</w>
ت و</w>
ت شکر</w>
بی ماران</w>
ب رنامه</w>
ب ا</w>
ای ن</w>
ا نگلیسی</w>
ا میدواریم</w>
ا ما</w>
ا ستفاده</w>
ا ست.</w>
you -</w>
y '</w>
worri ed</w>
we ird</w>
vari ous</w>
than ks.</w>
st res
show n</w>
s ha
ro ci
roci ous.</w>
ref uses</w>
rec ur
read .</w>
ra is
pur pos
programm er</w>
pe er.</w>
on es</w>
navig ation</w>
me ..</w>
inser ted</w>
http://goo.gl/ t
happ y.</w>
gust ed</w>
fol ks</w>
fai rly</w>
f ing
exhaust ing,</w>
ett e,</w>
est ,</w>
disabl ing</w>
dis gusted</w>
di rect</w>
detail ,</w>
cti ve</w>
conditi ons</w>
conditi on.</w>
aw ful.</w>
at rocious.</w>
area :</w>
analy st,</w>
Sha me</w>
D ear,</w>
Crash es</w>
9 7
97 %</w>
28 :</w>
+ +
" load
st up
st rive</w>
st r
sp ecti
sl ep
sig ning</w>
regist ered</w>
priv acy</w>
plac e!</w>
op ini
ony m
need ed!</w>
li l</w>
know !</w>
ik a,</w>
hand le</w>
fin ally</w>
fi ve</w>
fast er
fam ily</w>
do se</w>
dis able</w>
consi der
comp any.</w>
c ell
c e,</w>
bo dy</w>
back -</w>
au di
at s</w>
an onym
agg reg
adjust ed</w>
Zo h
Perf ect</w>
Migrain e
M ik
Kati e,</w>
Ha z
Down loaded</w>
Awes ome</w>
A Y
= (</w>
ک ن
کن ه</w>
ک ا
کا ر</w>
ن می
نمی کنه</w>
ای ران</w>
user vo
together ?</w>
things :</w>
so ld</w>
requi red</w>
recur ring</w>
re t</w>
progres si
per specti
low ?</w>
langu age.</w>
int end
imagin e</w>
im e.</w>
ick i
help ing!</w>
h r.</w>
g im
fut ure</w>
ff e
eb ,</w>
des per
dep loy
cou ldnt</w>
continu es</w>
commun ity,</w>
am ed</w>
Zoh eb,</w>
Otherwis e</w>
N E</w>
L u
Jud e,</w>
EV ER</w>
Did nt</w>
C ass
Al ice,</w>
: /</w>
20 14</w>
w ent</w>
w aste</w>
ta k
stup id.</w>
stru gg
st age.</w>
sl ett
s c
s )</w>
resear ch,</w>
reg ret</w>
recommend s</w>
no c
new slett
ment ,</w>
lint ,</w>
jo ke</w>
it self.</w>
inten tion</w>
hesit ate</w>
hav ing.</w>
h ence</w>
guess es</w>
for um</w>
effor t</w>
ed ).</w>
ecti on,</w>
deep ly</w>
craz y</w>
conveni ent.</w>
cont in
consum er</w>
conditi on</w>
beg in</w>
awes ome
anti -
an ci
again ,</w>
ag on
adjust .</w>
W AS
WAS TE</w>
Su z
Su ff
SP A
SPA CE</w>
S ent</w>
S AY
SAY ING
SAYING !!!!</w>
Regar ding</w>
P HO
PHO NE</w>
Over all</w>
M om
M ig
Lynn ette,</w>
Laur ie,</w>
Jacqu el
Ja ime.</w>
H en
D O
D M</w>
... but</w>
. ,</w>
% .</w>
á lint,</w>
with ?</w>
updat e!</w>
troubleshoo t</w>
tot ally</w>
to gra
togra ms</w>
tem por
tempor ary</w>
t 0
t0 5
t05 Q</w>
sel ls</w>
report ing</w>
read ing,</w>
rais ing</w>
r ply</w>
q DM</w>
push es</w>
pres criptions</w>
pic tograms</w>
pe di
op e!</w>
newslett er.</w>
lock ed.</w>
l ay</w>
k qDM</w>
intend ed).</w>
ind ep
inconvenienc ed.</w>
im p
http://goo.gl/t b
http://goo.gl/tb kqDM</w>
http://goo.gl/ 10
http://goo.gl/10 t05Q</w>
head ??</w>
gim me</w>
g ure</w>
frustr ation.</w>
friendly "</w>
fir gure</w>
fi v
fi es</w>
fact ory</w>
es ".</w>
doctor ?</w>
desper ation</w>
dem o.</w>
data :</w>
data .
data. It's</w>
cr ap
crap ...</w>
coun t</w>
contin ually</w>
co sts</w>
as p
anti- medication.</w>
anonym ized</w>
an ne
am ing</w>
ak e.</w>
agon y</w>
aggreg ated.</w>
account -</w>
W ouldn't</w>
S end</w>
N EVER</w>
Mom ika,</w>
Meg ,</w>
Jo sh
Hen r
Don t</w>
C S</w>
B álint,</w>
5 %.</w>
3- 5%.</w>
work ..</w>
w icki
wicki pedi
wickipedi a</w>
us e!</w>
us abl
usabl e.
usable. *</w>
urg ently.</w>
upti ons!</w>
un satis
unsatis factory</w>
um ents</w>
tho ds</w>
suppos e.</w>
sugar ",</w>
speci al</w>
sp ent
spent ...
spent... Maybe</w>
sp aming</w>
sl ead</w>
s ho
problem s?</w>
pro mo
promo te</w>
pos able</w>
perfec t.</w>
orr ho
orrho id
orrhoid s!</w>
on es.</w>
noc enc
nocenc e
nocence ฯ</w>
night ma
nightma re,</w>
ne gl
negl ected</w>
mock able</w>
mis slead</w>
me g</w>
lo ats</w>
list .</w>
li able</w>
l amed</w>
l ,</w>
k !!!!</w>
jo y.</w>
investig ation</w>
inv it
inter uptions!</w>
inf lamed</w>
in nocenceฯ</w>
hem orrhoids!</w>
help ful,</w>
fix es".</w>
eth .</w>
ed "</w>
easi est</w>
dis posable</w>
dis connected</w>
developer s:</w>
deploy ment</w>
deep est</w>
day s,</w>
cell !</w>
bul liable</w>
bu y'</w>
bl ame</w>
beli eving</w>
b y,</w>
b reach</w>
b loats</w>
audi o</w>
as soci
arg uments</w>
apologi es.</w>
anci ent</w>
an i
ad s?</w>
Terri ble.</w>
Suff ering</w>
Shar on,</w>
Remo ved</w>
R ec
N ope!</w>
Me thods</w>
L L</w>
Jun k!!!!</w>
Josh ,</w>
Jan !</w>
Faceboo k,</w>
F re
Be ing</w>
App t</w>
Ab using</w>
* 50</w>
' my</w>
' buy'</w>
' .</w>
" fixes".</w>
yn chron
ynchron is
ynchronis ation"</w>
us i
track ing,</w>
sw ir
swir ls</w>
succ eed</w>
stu di
stru ctive</w>
ro ,</w>
respond ing,</w>
professi onal</w>
opini on</w>
om ini
omini qu
mo b
mob ile</w>
mis diagnosis</w>
m s.</w>
invit ation</w>
impl ement
fiv e-star</w>
experienc e:</w>
ent !</w>
develop er</w>
con structive</w>
char ting</w>
ca re!</w>
backgr ound</w>
aren 't.</w>
ach ,</w>
a int
Shaw na,</w>
Rachell ,</w>
Play :</w>
Over all,</w>
M B
MB )</w>
Lyn n,</w>
Lor na,</w>
Loo ked</w>
L iz
Int ernet</w>
Googl e,</w>
Di an
D ominiqu
19 ++
19++ MB)</w>
167 1</w>
( 19++MB)</w>
"overlapp ing"</w>
"S ynchronisation"</w>
wish ing</w>
t end</w>
str ic
st ly</w>
ros s</w>
retri ev
remo ving</w>
li vi
integ rated</w>
in ess</w>
h our</w>
fac ing?</w>
exten si
dat es</w>
cre di
ck s!</w>
buddi es
befo re!</w>
away -
aur a</w>
ar y,</w>
ap oint
Ton y,</w>
No where</w>
Henr y,</w>
G ab
B ad</w>
( minus</w>
w id
w asn't</w>
uservo ic
user -
suff ers</w>
set up</w>
secti on?</w>
s ent
perh ap
perhap s,</w>
on e-star</w>
no thing.</w>
migrainebuddy .
migrainebuddy. uservoic
migrain s</w>
mention ing</w>
lin e.</w>
laun ch</w>
it -
it- the</w>
indep end
id !</w>
http:// migrainebuddy.uservoic
fre e.</w>
do c</w>
dis apoint
disapoint ed.</w>
det ection,</w>
chang e/
b right</w>
b hav
away- unfortunately</w>
associ ated</w>
app ;</w>
an d,</w>
ai bhav
additi on,</w>
acc ross</w>
W NL
WNL O
WNLO A
WNLOA D</w>
V aibhav
U NL
UNL ES
UNLES S</w>
T ook</w>
Swip ing</w>
Su cks!</w>
O L.</w>
Mo ,</w>
Mig rain</w>
Ja e,</w>
Haz el,</w>
Fre ezes</w>
DO WNLOAD</w>
D aw
D E</w>
CO DE</w>
C a
An dro
9 2</w>
3/ 5.</w>
( e.g.</w>
wonder ful.</w>
with .</w>
w ast
updat es.</w>
tun ing</w>
tru e,</w>
tr ol</w>
t ough</w>
t er</w>
support ,</w>
sum es</w>
studi es.</w>
stric tly</w>
st !</w>
sor ted</w>
s aid</w>
r s.</w>
progressi vely.</w>
pri vate</w>
oc c
network !!</w>
ins ane.</w>
indivi du
independ ently</w>
in ding</w>
happen )</w>
g one</w>
faster ).</w>
experienc ing?</w>
est ro
ement s</w>
ed ro,</w>
develop er.</w>
correct ing</w>
correct !</w>
consum ed</w>
consu me</w>
confidenti al</w>
con trol</w>
change/ reset</w>
buddies '.</w>
acti vate</w>
acc ess.</w>
Vaibhav ,</w>
TI LL</w>
Sam mi
S TILL</w>
P edro,</w>
M b</w>
Lo ts</w>
Jenn y!</w>
Jacquel ine,</w>
H i.</w>
CO OL.</w>
Andro id!</w>
Ad y,</w>
2 12
212 Mb</w>
( chat</w>
with ),</w>
wish ed</w>
wis h,</w>
un bias
unbias ed,</w>
tremend ous</w>
tr e</w>
syn c.</w>
suggesti ons.</w>
spo t</w>
sent )</w>
review /
review/ critique</w>
perspecti ve,</w>
pattern s,</w>
on ce,</w>
lat er,</w>
la you
k sa,</w>
it y
ins igh
improv ed?</w>
extensi vely</w>
evalu ation</w>
encourag ement.</w>
e-mail ,</w>
dr ink</w>
don '
criticis ms.</w>
criticis m</w>
consist ently</w>
cod e,</w>
bus iness</w>
attemp ted</w>
at e,</w>
appro ach,</w>
WiF i</w>
W illi
W aste</w>
O livi
Mik e,</w>
Em ksa,</w>
Donn el,</w>
Cass andra,</w>
B r
? !</w>
( hence</w>
z ,</w>
wast ed</w>
together ...</w>
th ro
sync s,</w>
sync ing,</w>
so m
retriev ably</w>
respond ing.</w>
report .</w>
real ist
re st.</w>
positi on</w>
other ?!</w>
open ing/
opening/ syncing,</w>
om al,</w>
occ ur</w>
not ed</w>
migraine ).</w>
lo st!</w>
kid s</w>
ir retrievably</w>
inconvenienc e!</w>
in e</w>
improvement s,</w>
impres sed</w>
hand y</w>
hab it
follow ed</w>
experienc e?</w>
error s,</w>
ere ,</w>
eras e</w>
di ary.</w>
char ts!</w>
calendar .</w>
bil ity</w>
bas ic</w>
awesome !</w>
autom ated</w>
Rec ent</w>
N O</w>
Mi rand
K omal,</w>
E T</w>
A c
9 %</w>
24 h!</w>
wan t,</w>
tho se.</w>
th ird</w>
synchroniz ing
report s,</w>
occur !</w>
n et</w>
lo ses</w>
issu es.</w>
intr usive</w>
insigh ts</w>
ick ed</w>
hum an</w>
headach e.</w>
h un
fir st,</w>
f ee,</w>
entri es.</w>
easi er.</w>
cl ari
ag ree</w>
activiti es</w>
acti ons</w>
Y ET</w>
WI S
WIS H</w>
WI CE</w>
T any
T WICE</w>
T H
Jas on,</w>
H oping</w>
(^_^ )</w>
work s,</w>
w ro
vi ly</w>
un realist
unrealist ically</w>
typ ical</w>
t *</w>
suggesti on?</w>
som ni
s ource</w>
review ed</w>
requi ring</w>
reg r
regr ound</w>
real ity.</w>
pu tting</w>
pop ping</w>
pleas e!</w>
off line</w>
minu t
m atch</w>
loc ate</w>
in somni
high l
hea vily</w>
fo reground</w>
ffe e</w>
fel t</w>
estro ys</w>
esp .</w>
es -</w>
enc ry
don' t*</w>
del ighted</w>
dat es,</w>
co ffee</w>
charg ed</w>
charg ed.</w>
bias ed</w>
bi as</w>
better ;</w>
at ely.</w>
al so.</w>
W ,</w>
Ti me</w>
Sammi e,</w>
Recor ding</w>
Nic ,</w>
Mi ra,</w>
K ir
Jessi e,</w>
I D
D estroys</w>
As sumes</w>
An ni
9. 9%</w>
9 9.9%</w>
3: 26
3:26 am</w>
* don't*</w>
wro te</w>
synchronizing :(</w>
soluti on!</w>
re ma
rema in
orri ble.</w>
on line.</w>
mock -
mock- entry.</w>
migran es</w>
inst ant</w>
individu al</w>
i de</w>
here ,</w>
f ake,</w>
exam ple,</w>
ex changing</w>
e "</w>
d g
cl icked</w>
ass ed</w>
an ne,</w>
an !</w>
al locate</w>
Wor ks</w>
Th at's</w>
T ell</w>
L ee,</w>
H orrible.</w>
Dominiqu e,</w>
. L.</w>
"overlapp ed"</w>
z en</w>
tur ned</w>
sto red</w>
step s</w>
review s,</w>
reg ul
re en,</w>
questi ons,</w>
pt ed.</w>
problem s,</w>
my self</w>
mo stly</w>
log s,</w>
interest ing</w>
imp act</w>
hun dre
hundre ds</w>
great !</w>
gi v</w>
everyth ing,</w>
et c
end s.</w>
encry pted.</w>
decreas e</w>
c ed</w>
bro ther.</w>
at .</w>
amaz ing,</w>
ab z,</w>
You 'll</w>
W ea
Olivi a,</w>
N abz,</w>
Migrain e.</w>
Lo st</w>
Kath y,</w>
K i
I r
Cryst al,</w>
Ad ri
Ac count</w>
worr y.</w>
the me</w>
start /</w>
slep t,</w>
setting s,</w>
s pl
quick ly.</w>
pro portion</w>
nor m
l ess
ig -
ig- brother.</w>
idea s.</w>
headaches /
har assed</w>
g one,</w>
g er
es "</w>
en !</w>
effecti ven
disappoint ment.</w>
det er
defaul t.</w>
b ig-brother.</w>
Willi am,</w>
U ses</w>
M an
K iar
Jo di
En d</w>
Delet ed.</w>
Conf using.</w>
Am y.</w>
/ 1
tren ds</w>
setting s?</w>
s ch
rit ating</w>
ran do
mo ment,</w>
laun ched</w>
l e.</w>
fro zen</w>
foo d,</w>
en tre</w>
effecti vely</w>
deep er</w>
budd y.</w>
bene fit</w>
appoint ments.</w>
Wea ther</w>
V .,</w>
Tam m
T an
Samanth a,</w>
Play ).</w>
Micha el
M .L.</w>
Lo ved</w>
Kiar a,</w>
Kel li
Jess ic
Ir ritating</w>
Edit :</w>
Bec ause</w>
wid get</w>
v es.</w>
v e-
respon d</w>
n one</w>
m ark</w>
low ering</w>
loc ated</w>
l es</w>
ind eed</w>
ik ca,</w>
ig h</w>
han d.</w>
fin e,</w>
fam ili
est ly</w>
ere n
e ).</w>
dos es,</w>
d one</w>
cu t</w>
consum ing</w>
bu il
ar m
Tan ikca,</w>
Rebec ca,</w>
O n</w>
Nic e.</w>
M ade</w>
Ha ven't</w>
Con t
B est,</w>
6 .</w>
ver if
t ad</w>
sur ger
s etting</w>
prot ect
par ts</w>
offlin e.</w>
oc cas
occas i
o v
not e!</w>
no ther</w>
n d</w>
mistak e?</w>
lin ed</w>
layou t</w>
job .</w>
interfac e.</w>
http://migrainebuddy.uservoic e.com/
http://migrainebuddy.uservoice.com/ forum
ho g
hog s.</w>
fl aw
f us
es !</w>
effectiven ess</w>
do dg
dodg y.</w>
do .</w>
dec ided</w>
cour se,</w>
as s</w>
analy se</w>
S yn
Hel p</w>
E t
A nother</w>
8 -
wrong !</w>
verif ying</w>
ve- feedback</w>
under lined</w>
un necessary</w>
un lock
unlock ing.</w>
tri ed.</w>
track ing?</w>
tra diti
thank s!</w>
surger y!</w>
sev ere,</w>
self -
s/ 2
s/2 5
s/25 31
s/2531 4
s/25314 8-
s/253148- lea
s/253148-lea ve-feedback</w>
relief s,</w>
protect ed,</w>
prevent ing</w>
pres sion</w>
person ate</w>
off .</w>
no body</w>
n ice.</w>
mp tom
mat ically</w>
list ed</w>
lev el,</w>
in credi
im personate</w>
http://migrainebuddy.uservoice.com/forum s/253148-leave-feedback</w>
highl ighted</w>
fus s</w>
for get
fac e,</w>
end ed!</w>
encourag ement</w>
dra matically</w>
de com
decom pression</w>
bac king</w>
ann e.</w>
Mirand a,</w>
Kir st
Gab by,</w>
B .S.
B.S. !</w>
Anni e</w>
.S. "</w>
, after</w>
"B .S."</w>
use ful,</w>
up id
upid est</w>
though ts.</w>
stres s</w>
screen sho
resul ts</w>
reli able</w>
re medi
progres sion</w>
ov ul
op pos
not es.</w>
insomni a</w>
help ,</w>
har d-
hard- working</w>
h rs.</w>
gl it
functi ons.</w>
fre ely</w>
flaw s.</w>
ent y</w>
el ements</w>
edit "</w>
eat en</w>
differen ti
comp are</w>
clust er</w>
bl an
app ea
Wh ile</w>
Th ink</w>
Sy mptom
St upidest</w>
F ro
C ant</w>
( sometimes</w>
yester day</w>
worri es-</w>
t ;</w>
st em</w>
sh if
shif t</w>
self- explanatory</w>
s li
s ..</w>
pro duce</w>
pref er</w>
pag e,</w>
p un
mor al</w>
migran e</w>
mention ed</w>
l en
form at.</w>
fit bit</w>
fil ter</w>
experienc ing</w>
ess s</w>
dis r
developer s.</w>
custom ized</w>
crit ical</w>
ac esss</w>
W as</w>
Un aware</w>
P os
N icki,</w>
Feed back</w>
B eth.</w>
3 6</w>
! )</w>
user- friendly</w>
up !</w>
start/ end</w>
st ro
so on)</w>
si ze</w>
si bly</w>
secti ons</w>
pow er.</w>
perio ds.</w>
ovul ation</w>
level .</w>
jo t</w>
initi al</w>
head ,</w>
h oping</w>
go d
glit ch
ex :</w>
evalu ate</w>
effor ts</w>
ear li
deter mine</w>
at e.</w>
Ti ff
Tab 2
Tab2 ".</w>
Tab 1
Tab1 ",</w>
Pos sibly</w>
L O
Ka ren,</w>
ID ?</w>
Headach e</w>
Doct or.</w>
( if</w>
though !</w>
t en
sun g
sung ).</w>
start/ stop</w>
spl it</w>
sleep ....
sleep.... the</w>
sign alled</w>
server s</w>
repres ents</w>
remain ing</w>
perh aps</w>
on e's</w>
ma ,</w>
hour s.</w>
heal a.</w>
fu n</w>
fac eboo
f our</w>
experienc es.</w>
exp ect</w>
diagno stic</w>
det ects</w>
det ecting</w>
c es</w>
c A
back !!</w>
at ely,</w>
appoint ment!</w>
adjust ments.</w>
activiti es,</w>
Suz anne,</w>
Sam sung).</w>
Sam reen,</w>
S hel
P al</w>
Mic heala.</w>
Mean while,</w>
E E
Denis e!</w>
An yone</w>
An dre
A tt
8 %</w>
" edit"</w>
won der</w>
way s.</w>
war n
usel ess.</w>
they' ve</w>
t remely</w>
sufferer ,</w>
stro ke</w>
sign ed</w>
respon sive</w>
rem inding</w>
proto types.</w>
point s</w>
pl enty</w>
p ick
p ay</w>
ou ch,</w>
oo d</w>
ma x
m med</w>
ly ..
loc ation
lik e,</w>
li king</w>
is i
ing s.</w>
improv e.</w>
foo d
f all</w>
constan t,</w>
c lock</w>
bu mmed</w>
bett er,</w>
and/ or</w>
Ne uro</w>
Laura ,after</w>
G r
Ex tremely</w>
Cont act</w>
Con n
Att ack</w>
3- 5%</w>
.. but</w>
. &l
.&l t;</w>
( with</w>
&gt; .&lt;</w>
vari ation,</w>
un likely</w>
th usi
stu ck</w>
slow ly..
slowly.. most</w>
s ,
neurologist s</w>
mo de.</w>
metho ds.</w>
metho ds,</w>
less en</w>
just i
justi fies</w>
inclu ded</w>
improvement .</w>
hon estly</w>
g es</w>
est s</w>
ess a,</w>
es ?</w>
es )</w>
er ing.</w>
er ate</w>
en thusi
em iplegic</w>
con v
compli ments.</w>
comm ents.</w>
clari fic
categori es.</w>
butt ons</w>
b b
arm in</w>
al low
add ed,</w>
I s
H emiplegic</w>
G l
G armin</w>
F RE
E l
Da vi
3 *
3* ?</w>
transf er</w>
tim er</w>
thought s/
t u
st ages</w>
so on!</w>
separ ately.</w>
s il
pop ular</w>
po or</w>
pl us</w>
p ass</w>
on ni
occasi onally</w>
o k.</w>
ness Pal</w>
it y!</w>
hur t</w>
help ?</w>
h ance</w>
gan .</w>
fut ure
foo d.</w>
ess ed</w>
en hance</w>
ear s</w>
dr y.</w>
doctor 's</w>
disr upted</w>
ai r</w>
S im
My Fit
MyFit nessPal</w>
FRE E</w>
E DI
1 1</w>
&l t;
where ,</w>
warn ings</w>
w o
valu e</w>
v al
tri ptan</w>
ta g</w>
st able,</w>
screensho ts</w>
regul arly</w>
neurolog y</w>
navig ate</w>
lo st.</w>
lat er.</w>
integ rating</w>
int e
increas ed</w>
implement ing</w>
happen s.</w>
god send</w>
earli er</w>
differenti ate</w>
des cription</w>
complet ely</w>
compl ex
blan k</w>
ann on!</w>
add /
Syn drome</w>
Symptom s,</w>
Re gin
Rachel ,</w>
P ,</w>
Migraine Buddy.</w>
Migrain es,</w>
Kat e.</w>
EDI T
An n.</w>
10 /
д &lt;
д&lt; ).</w>
z z
year !</w>
w ear</w>
updat es,</w>
too ).</w>
thes e...</w>
support@healint.co m)</w>
start ed?</w>
some one's</w>
so li
sim ple,</w>
signal .</w>
sens iti
regar ds</w>
re d.</w>
pun ish</w>
pr o</w>
pr ic
possi bility</w>
pick er</w>
pic t
peop le.</w>
ma g
k y,</w>
inte gr
icon s,</w>
ic s</w>
hell e,</w>
h er.</w>
goo d
ft en</w>
export ing</w>
ev ade</w>
err y,</w>
er ve</w>
do se.</w>
discus sing</w>
daught er.</w>
c k.</w>
better ?</w>
annoy ing,</w>
am .</w>
acc ess,</w>
T w
Sus annah,</w>
Some thing</w>
S ep
Per s
P ri
O ften</w>
Mari an,</w>
M ax
Liz .</w>
J eff
Can not</w>
B een</w>
: ).</w>
( support@healint.com)</w>
&gt; д&lt;).</w>
y W
yW are
yWare 's</w>
vis ually</w>
vagu e</w>
traditi onally</w>
to :</w>
th ing,</w>
ta b</w>
sa !</w>
s lows</w>
s cal
rel ying</w>
record ing,</w>
ra mp
ramp s</w>
push ing</w>
pain ful!</w>
p ed</w>
norm ally.</w>
n ect</w>
min .</w>
migrain a</w>
men u
m ly</w>
long er,</w>
l ist</w>
inser ting</w>
ing .
incomplet e"</w>
import ,</w>
igh t,</w>
horri ble.</w>
hi bit</w>
h .</w>
gg yWare's</w>
functi on?</w>
fortun ately,</w>
famili al</w>
ext ends</w>
ex hibit</w>
dro p
d a
com par
col or</w>
chat s.</w>
calendar ,</w>
c ros
break through</w>
br illiant</w>
b igg
asp ects</w>
add/ remove</w>
Tw o</w>
Tany a,</w>
Sep tem
Ne uro
N an
Med s</w>
Max well!</w>
Man ually</w>
Jo y,</w>
J en,</w>
Fro ggyWare's</w>
Et c.</w>
Di ary</w>
Conn nect</w>
A part</w>
7 2
72 h,</w>
4 h</w>
1 3</w>
1 ,</w>
" incomplete"</w>
your self</w>
y ith
yith !</w>
updat ing!</w>
up /
tra v
thro bb
sync -
sync- ed</w>
stu ck.</w>
star s)</w>
sleep ?</w>
sim pl
screen record</w>
s ​</w>
requ est</w>
rando mly</w>
proper ly,</w>
perfect !!</w>
patt en</w>
ob iz
obiz en</w>
monit or.</w>
migraines... so</w>
migraine- buddy.</w>
m id</w>
l em
lem yith!</w>
keep ing
keeping ​</w>
it s​</w>
intens ity
inst ea
inf lu
indic ative</w>
i !</w>
function s,</w>
fing ers</w>
fast !</w>
f antastic</w>
enthusi as
else )</w>
effecti ve</w>
drop ping</w>
cros sed</w>
correct ...</w>
consider able</w>
can 't.</w>
bigg est</w>
be gan.</w>
be ?</w>
aver age.</w>
ati ves.</w>
app .....
app..... so</w>
abo ve</w>
ab ell
Wh ite</w>
Un fortunately,</w>
Th ings</w>
St oring</w>
Sh lemyith!</w>
O S</w>
Mire a,</w>
Mire a!</w>
M obizen</w>
M B</w>
Lyn se
L ea
Kelli e.</w>
Jodi -
Jodi- Ann.</w>
Jo anne.</w>
Jenny@healin.co m</w>
Jay ,</w>
J ourn
I e</w>
Googl e-
B onni
5 th</w>
16 .
16. 6.</w>
. )</w>
( as</w>
vagu e.</w>
up/ fall</w>
up set</w>
unus able.</w>
too !</w>
thoughts/ suggestions</w>
summ ary.</w>
sufferer s.
sufferers. :-)</w>
succ ess
strugg ling</w>
sol ic
solic iting</w>
sil ly</w>
short com
shortcom ings.</w>
sco re.</w>
satis fied</w>
repeat ed.</w>
real ize</w>
r ation</w>
pl an,</w>
n b
mov es,</w>
migraines -</w>
matt er</w>
loc ations</w>
job ,</w>
hur t,</w>
han is
eras ing</w>
e.com /</w>
e- Buddy.</w>
delet e.</w>
day )</w>
d ic
confir med</w>
compar is
co ho
clarific ation,</w>
budd y,</w>
ber ...</w>
bec ky,</w>
ation s,</w>
an .</w>
al coho
ain s</w>
V aler
Steph en,</w>
Septem ber...</w>
Regin a,</w>
O r
Migrain e-Buddy.</w>
Lu cy,</w>
Journ al</w>
Is abell
F ati
F antastic</w>
EDIT :</w>
Do esn't</w>
Dian e,</w>
Clai re,</w>
2 9</w>
2 7
, the</w>
, "</w>
you tu
youtu .
youtu. be
youtu.be /
y :</w>
worri es,</w>
w ears</w>
us er,</w>
trigger s
to ).</w>
throbb ing,</w>
so ft
sli de</w>
sleep ing.</w>
re installing</w>
per man
oft en.</w>
migraines... I</w>
me !!!</w>
lea ving</w>
k -
it e.</w>
interfac e,</w>
instea d
instead ..
instead.. won't</w>
incredi bly</w>
in s</w>
in es</w>
in a!</w>
https:// youtu.be/
ha vi
h f
further ,</w>
function al
feel .</w>
faceboo k!</w>
eri or</w>
ent ered</w>
ed ...
dep ending</w>
delet ed,</w>
dat i
dat e,</w>
cr ack</w>
continuousl y,</w>
conf using.</w>
cas e).</w>
car us,</w>
an s.</w>
alt ern
alt ered</w>
al :</w>
Un til</w>
O K</w>
Noti fication</w>
Nic ho
L ol
Kimber ley,</w>
I carus,</w>
Google- play</w>
Fati ma,</w>
EE P</w>
Bu g</w>
Ash ley,</w>
A 5</w>
A 5)</w>
27 th</w>
26 th</w>
167 1,</w>
10 0</w>
... I</w>
( I'm</w>
yn n,</w>
w ak
v it
type ".</w>
too ls</w>
t y.</w>
speci al
si sts</w>
right ?</w>
rel ate</w>
ref erring</w>
reas ons</w>
r ,</w>
provi ding</w>
proc essed</w>
pi ercing</w>
p ha
nb E</w>
n ic
moti vate</w>
m ec
mec hanis
long ,</w>
log s.</w>
l ets</w>
k- hf
k-hf 8
k-hf8 My
k-hf8My B
k-hf8MyB nbE</w>
improvement ?</w>
if e</w>
id eas
https://youtu.be/ k-hf8MyBnbE</w>
hour s,</w>
headach e
har der</w>
follow ing</w>
fir st.</w>
easi er,</w>
do c.</w>
di zz
developer s,</w>
conv ince</w>
complex ity.</w>
clust er,</w>
clinici ans.</w>
char act
be havi
appoint ment</w>
any where,</w>
anta stic
an ted</w>
amoun t,</w>
U P</w>
T E
Sara h!</w>
Or igin
LO VE</w>
K EEP</w>
Jenny@healin.co m?</w>
Jan essa,</w>
H um
G ay
D ana,</w>
Br illiant</w>
Angel a,</w>
; d</w>
4 .
3 rd</w>
x ,</w>
wo ke</w>
versi ons.</w>
us les</w>
us ing,</w>
tr ic
ti ers</w>
th coming</w>
symp tom</w>
su port</w>
some thing,</w>
soli d</w>
sm art</w>
sleep )</w>
shor t,</w>
s qu
s k</w>
s choo
review :</w>
reas on.</w>
pric ed,</w>
post drome.</w>
play 's</w>
pha se</w>
pain s..</w>
over priced,</w>
oppos ite.</w>
open ing</w>
op erate</w>
o me.</w>
non- clinici
non-clinici an</w>
med s/
mechanis m.</w>
max ).</w>
m ic
is ed</w>
influ ence.</w>
inf erior</w>
ho p</w>
headaches/ migraines</w>
h its</w>
go to</w>
for thcoming</w>
fit ness</w>
experienc ed</w>
exc el</w>
es ...</w>
enthusias m.</w>
en dati
cor respond</w>
cont ains</w>
cod es</w>
cap ability.</w>
bugg ing,</w>
buddi es</w>
au ras</w>
altern atives.</w>
alcoho l</w>
add ed.</w>
W anted</w>
Updat ed</w>
T em
Pri or</w>
P au
Origin al:</w>
Not es"</w>
N at
Lynse y,</w>
Hum id
H igh</w>
Adri ana,</w>
4. 5</w>
20 mn</w>
( Ie</w>
( 20mn</w>
" no</w>
we &
we& #
we&# 3
we&#3 9
we&#39 ;d</w>
us h</w>
unus ual</w>
type "</w>
tr ate,</w>
t able</w>
sugg ests</w>
st ing</w>
squ a
squa resp
squaresp ac
squarespac e.com/</w>
serv ice.</w>
s? ??</w>
regist ration</w>
ra k,</w>
r ush</w>
prev ents</w>
of -
occur s.</w>
not e.</w>
night )</w>
motiv ations</w>
migraine food
migrainefood coach
migrainefoodcoach ing.
migrainefoodcoaching. squarespace.com/</w>
mid night)</w>
method /
ment s,</w>
meds/ relief</w>
location /
len e,</w>
l et's</w>
k /
is s
interr upted</w>
integr ation</w>
in sists</w>
https:// migrainefoodcoaching.squarespace.com/</w>
hour s???</w>
hi annon!</w>
here s</w>
har d.</w>
gra dually</w>
gr ou
googl e-
google- play's</w>
g ular</w>
franco is@healint.com)</w>
for ced</w>
ff ine,</w>
ey es)</w>
exist s</w>
ent ering.</w>
ell e,</w>
developer 's</w>
da ith</w>
d r</w>
d ar
charact ers</w>
cc ess</w>
ca ffine,</w>
bug )</w>
bel ow,</w>
be ing,</w>
ann a,</w>
There s</w>
Tem ps</w>
Shaw n,</w>
Remo ving</w>
Re gular</w>
R hiannon!</w>
Pers onally</w>
N av
Lol ).</w>
Kat ,</w>
K er
Jeff ,</w>
Isabell a,</w>
Humid ty.</w>
G reat
Da ith</w>
Conf uses</w>
Budd y?</w>
Budd y!</w>
Bu rak,</w>
A ccess</w>
2 )</w>
(^_^ ).</w>
( midnight)</w>
( it's</w>
( francois@healint.com)</w>
｡ ◠
｡◠ ‿
｡◠‿ ◠
｡◠‿◠ ｡
｡◠‿◠｡ )</w>
ver i
veri fied</w>
typ ed</w>
trav el</w>
too ,</w>
the -
th re
sub s
subs cription</w>
sleep pattern</w>
s s</w>
ros d,</w>
retri eving</w>
repres ent</w>
report s.
ra ig
pro ves</w>
ow ering</w>
or an
oo l</w>
night 's</w>
need s?</w>
mov ed,</w>
monit oring</w>
mic rosd,</w>
method/ email?</w>
lat ed</w>
k/ Google</w>
in side</w>
heal int</w>
har trate,</w>
glitch y</w>
fix ed.</w>
ext er
exter al</w>
es h,</w>
end ...</w>
dis appea
comm on,</w>
c ept</w>
buil t</w>
bu r
behavi our</w>
bar ?</w>
bac up</w>
ar m</w>
addres ses</w>
acc ess
ab out.</w>
X .</w>
V M</w>
S port</w>
Pi ercing</w>
Nicho le,</w>
Nic helle,</w>
Michell e!</w>
Michael a,</w>
L owering</w>
Kirst y,</w>
Kat e,</w>
Jessi e!</w>
J erry,</w>
J am
Faceboo k/Google</w>
Des k</w>
Con cept</w>
C raig
C ool</w>
31 /1
31/1 6</w>
10/ 31/16</w>
1 )</w>
/ location/
( ｡◠‿◠｡)</w>
( top</w>
際 に
際に 毎
際に毎 回
際に毎回 同
際に毎回同 期
際に毎回同期 を
際に毎回同期を 行
際に毎回同期を行 う
際に毎回同期を行う の
際に毎回同期を行うの が
際に毎回同期を行うのが 煩
際に毎回同期を行うのが煩 わ
際に毎回同期を行うのが煩わ しい
際に毎回同期を行うのが煩わしい の
際に毎回同期を行うのが煩わしいの と
際に毎回同期を行うのが煩わしいのと 、
際に毎回同期を行うのが煩わしいのと、 W
際に毎回同期を行うのが煩わしいのと、W eb
際に毎回同期を行うのが煩わしいのと、Web か
際に毎回同期を行うのが煩わしいのと、Webか ら
際に毎回同期を行うのが煩わしいのと、Webから 過
際に毎回同期を行うのが煩わしいのと、Webから過 去
際に毎回同期を行うのが煩わしいのと、Webから過去 の
際に毎回同期を行うのが煩わしいのと、Webから過去の 入力
際に毎回同期を行うのが煩わしいのと、Webから過去の入力 デ
際に毎回同期を行うのが煩わしいのと、Webから過去の入力デ ー
際に毎回同期を行うのが煩わしいのと、Webから過去の入力デー タ
際に毎回同期を行うのが煩わしいのと、Webから過去の入力データ を
際に毎回同期を行うのが煩わしいのと、Webから過去の入力データを 閲
際に毎回同期を行うのが煩わしいのと、Webから過去の入力データを閲 覧
際に毎回同期を行うのが煩わしいのと、Webから過去の入力データを閲覧 可
際に毎回同期を行うのが煩わしいのと、Webから過去の入力データを閲覧可 能
際に毎回同期を行うのが煩わしいのと、Webから過去の入力データを閲覧可能 に
際に毎回同期を行うのが煩わしいのと、Webから過去の入力データを閲覧可能に し
際に毎回同期を行うのが煩わしいのと、Webから過去の入力データを閲覧可能にし て
際に毎回同期を行うのが煩わしいのと、Webから過去の入力データを閲覧可能にして ほ
際に毎回同期を行うのが煩わしいのと、Webから過去の入力データを閲覧可能にしてほ しい
際に毎回同期を行うのが煩わしいのと、Webから過去の入力データを閲覧可能にしてほしい 。</w>
良 い
良い で
良いで す
良いです が
良いですが 、
良いですが、 入力
良いですが、入力 す
良いですが、入力す る
良いですが、入力する 際に毎回同期を行うのが煩わしいのと、Webから過去の入力データを閲覧可能にしてほしい。</w>
易 く
易く デ
易くデ ザ
易くデザ イ
易くデザイ ン
易くデザイン も
易くデザインも 良いですが、入力する際に毎回同期を行うのが煩わしいのと、Webから過去の入力データを閲覧可能にしてほしい。</w>
使 い
使い 易くデザインも良いですが、入力する際に毎回同期を行うのが煩わしいのと、Webから過去の入力データを閲覧可能にしてほしい。</w>
work s!</w>
week s,
weeks, with</w>
wak e!</w>
vestibul ar
vestibular "
vestibular" button.</w>
unus u
them ,</w>
ten sion</w>
some where</w>
sick ness</w>
sick ness
sickness )</w>
sens ors</w>
screen ).</w>
s L
sL l</w>
res end</w>
reports. Could</w>
rep lied</w>
reco ver</w>
oc ca
occa isi
occaisi onal</w>
minut es.</w>
migran es?</w>
menu &gt;
menu&gt; export</w>
mea su
mag ically.</w>
level ,the</w>
intensity /location/
intensity/location/ symptoms.</w>
http://goo.gl/ 0
http://goo.gl/0 f
http://goo.gl/0f M
http://goo.gl/0fM sLl</w>
hi m</w>
fail ed</w>
f aint
faint ing.</w>
eren ce.</w>
er )</w>
ed /
doctor !</w>
dizz ines</w>
disappea red.</w>
desig ne
day, when</w>
day, a</w>
conveni ent!</w>
communic ating</w>
coach ing</w>
bu y</w>
bas ics</w>
aff ecting</w>
Tamm y.</w>
R os
K enn
In ter
I m
Des ig
Dar lene,</w>
Craig ,</w>
Ch esh,</w>
A S</w>
2 nd</w>
0 0
( similar</w>
" vestibular"button.</w>
" Notes"</w>
vit am
vitam ins</w>
ver ry</w>
unusu al,</w>
un reliable.</w>
thor ough
thing y</w>
stron g</w>
sha me.</w>
seri ousl
secon ds</w>
progra m.</w>
ol d
mistak es.</w>
min a,</w>
me tric
m arg
marg au
margau x,</w>
instructi ons.</w>
inst erest
insterest ed</w>
ing ,"</w>
il y.</w>
habit s-</w>
future ,</w>
functi onal</w>
experienc e!</w>
detail s!</w>
cycl es</w>
continuousl y.</w>
clin ic</w>
bug ?</w>
anyth ing,</w>
any where</w>
amaz ing.</w>
ad y,</w>
Y es...</w>
Valer ie!</w>
S4 ).</w>
S how</w>
May o</w>
Gay le,</w>
Desig n</w>
De finitely</w>
D .</w>
A mina,</w>
7 .</w>
2 -
1 7</w>
1 1
"load ing,"</w>
wor se.</w>
wor d
un responsive</w>
un common,</w>
this :</w>
su g
soon !!</w>
soft w
sec ure</w>
right .)</w>
requ est
pain s</w>
oran ges</w>
op ped</w>
ol der</w>
mo ved</w>
jenny @heal
it ched</w>
idea .</w>
http://goo.gl/ f
frust rating,</w>
effici ently.</w>
e g</w>
drain s</w>
docum ent
dis satisfied</w>
comparis on:</w>
chat :</w>
calend er</w>
away !</w>
an it,</w>
ag ing</w>
Z ach
Veronic a.</w>
Updat e,</w>
U X.</w>
T .
T. T</w>
St opped</w>
Pau l</w>
O .
O. T.T</w>
Nav anit,</w>
Micha el,</w>
Med ical</w>
M z</w>
M u
L ady,</w>
Kenn eth,</w>
Jo ey,</w>
F ood</w>
Bonni e.</w>
Besid es</w>
B :</w>
Au ras</w>
.. I</w>
( in</w>
week )</w>
vi .</w>
vari able</w>
too l.</w>
thre e-star</w>
them sel
sto re.</w>
star s,</w>
sleep ing!</w>
shor tly</w>
s "?</w>
ro ll</w>
relat ed,</w>
refl ects</w>
real ised</w>
promp ts</w>
post ing</w>
p m,</w>
lif e.</w>
le y!</w>
k new</w>
ic .</w>
ho l
friend s</w>
forget ,</w>
foo ds,</w>
fl u
every day)</w>
effor ts!</w>
de ..
commun ity</w>
co ver
co de..
bugg y</w>
break down</w>
assi sting</w>
are a</w>
al ot</w>
W arm</w>
N B:</w>
Ki ah,</w>
K al
Darci e,</w>
Darci e!!</w>
3 )</w>
24 /
" a</w>
war ning,</w>
w ife</w>
us ability.</w>
under cl
undercl ap</w>
thes e.</w>
the- art</w>
th underclap</w>
sudd en,</w>
stic ).</w>
stat e-
state- of-
state-of- the-art</w>
softw are
software /
software/ option</w>
sleep "</w>
sing ular</w>
seriousl y:</w>
sel ected</w>
sear ch,</w>
sch em
relief .</w>
qu o
prot ection</w>
pref er,</w>
pre dic
perman ent</w>
out dat
outdat ed...
outdated... Requires</w>
old ),</w>
migraines .....
migraines..... but</w>
mea sure</w>
log ist</w>
journ al.</w>
j L</w>
int ake.</w>
il ynn,</w>
i Y
iY C
iYC R
iYCR 4
iYCR4 K</w>
http://goo.gl/f W
http://goo.gl/fW cA
http://goo.gl/fWcA jL</w>
http://goo.gl/ iYCR4K</w>
headache "
headache" :</w>
es :</w>
er a</w>
eng aging</w>
ea d,</w>
dis like</w>
detec t,</w>
def lated</w>
d ul
d rank</w>
crash ing?</w>
confidenti ality</w>
app store.</w>
aler t
agno stic).</w>
[Update ]</w>
You' d</w>
Un less</w>
Trac ks</w>
Tho ma
S4 ,</w>
S S
R o
L ets</w>
Jo elle,</w>
Jessic a!</w>
Jenn ilynn,</w>
Inst ead,</w>
Di agnostic).</w>
Daw n,</w>
C ,</w>
Besid es,</w>
A vi.</w>
3 -star</w>
( within</w>
( S4</w>
" thunderclap</w>
z eph
zeph y
zephy r,</w>
word s!</w>
wa king</w>
w eed.</w>
unus able</w>
un changed.</w>
treat ments</w>
transf erring</w>
ti al</w>
tak en.</w>
t ree</w>
sul ety</w>
sub stan
substan tial</w>
sim p
schoo l,</w>
schem es</w>
ros e,</w>
re solves</w>
quo ted</w>
questi on.</w>
purpos es.</w>
proper ly
properly -</w>
play .Please</w>
pl z</w>
per ating</w>
pain ful.</w>
metric ,</w>
m B
mB V
mBV C,</w>
ly )</w>
le ft
l ight
j ud
in compatible</w>
http://goo.gl/ Ed
http://goo.gl/Ed mBVC,</w>
gra ss</w>
good .....
good..... it</w>
fic ations</w>
ed/ reinstalled</w>
detail s.</w>
decreas ing</w>
cre te</w>
corn er)</w>
con tri
con crete</w>
bug s"?</w>
app !!</w>
answ er.</w>
anne l</w>
an y,</w>
alert s...</w>
access .
access.  </w>
abo sulety</w>
a re.</w>
a me:</w>
W AS</w>
Uninstall ed/reinstalled</w>
Trigg er
T RA
T ,</w>
Sy stem</w>
Sw itched</w>
SS L</w>
Re comm
O perating</w>
Nan cy,</w>
Mel is
Ker i,</w>
Jennif er!</w>
J im,</w>
Inter phase</w>
Im rose,</w>
H I</w>
Gr in,</w>
Ex ame:</w>
D era</w>
Conf using</w>
Ch annel</w>
6 am.</w>
24/ 7.</w>
2- 4%</w>
11 pm,</w>
** **
" quality</w>
" bugs"?</w>
" My</w>
var y.</w>
sw it
recomm endati
pref erence.</w>
pr int
ph ys
over ide</w>
n ar
man i
mani pu
m -</w>
jenny@heal int</w>
iss y,</w>
intuiti ve</w>
impl ement</w>
ig ail
i phone</w>
high est.</w>
h is</w>
h )</w>
functional ity!</w>
feedback .
feedback. Feel</w>
fe e</w>
designe d.</w>
comprehen si
bur st</w>
b ar</w>
adap ting</w>
Tiff any,</w>
Ros anna,</w>
K ar
Jo !!</w>
I me,</w>
Ab igail
: 12</w>
6 :12</w>
12 h)</w>
/ c
... the</w>
( eg</w>
way ,</w>
umb ly</w>
trigger s?</w>
trigger ing</w>
track ed</w>
ti red</w>
there ..I</w>
terri bly</w>
tea ch</w>
tal k!</w>
swit ching</w>
so ?</w>
sensiti ve</w>
right /c
right/c entre.</w>
purpos e,</w>
progra m</w>
positi ons</w>
mis ses</w>
migraine ...I</w>
manipu late</w>
left /
left/ right/centre.</w>
ile y,</w>
i phone.</w>
h umbly</w>
graph ic
e is
e con
dul la,</w>
disappointment ,</w>
dep th</w>
d e,</w>
code.. how</w>
ch il
back log.</w>
ag o.</w>
abo ve,</w>
Zach ary,</w>
W on
V icki,</w>
R ob
Nic ely</w>
M issy,</w>
Lyn ie,</w>
K iley,</w>
F ew</w>
B U
As dulla,</w>
Abigail ,</w>
9 /
3- 5</w>
you !!</w>
work !!!</w>
triggers ...but</w>
sugar "</w>
sug ar</w>
s !!</w>
relief s.</w>
pl an</w>
phon e...</w>
oun ds</w>
mean while</w>
load ing.</w>
l is
l !</w>
heal th
graphic s,</w>
g mail</w>
factor s</w>
eis y,</w>
devic e?</w>
detail ed.</w>
awes ome.</w>
av is
ari es</w>
Won der
Thoma s,</w>
TE D.</w>
Suggesti on
P ro
Krist a,</w>
Kal eisy,</w>
Help ed</w>
H asn't</w>
BU T,</w>
Amand a!</w>
Ab solutely</w>
00 .</w>
( mine</w>
" some</w>
" I</w>
vis it
thing s.</w>
that !)</w>
star )</w>
star ).</w>
person al
notific ations,</w>
mail .co
mail.co m.</w>
lear ned</w>
inter val
in e.</w>
in accurate</w>
hur ts.</w>
hol ding</w>
g mail.com.</w>
for getting</w>
f antastic
ext ra,</w>
d avis
davis @
davis@ gmail.com.</w>
cover s</w>
c enter</w>
anymore .
anymore. *</w>
adap table</w>
[Edit :</w>
V inc
US TRA
USTRA TED.</w>
U X</w>
Trigger s"</w>
Steph an
R USTRATED.</w>
Lea ve</w>
F RUSTRATED.</w>
D ani
A gain</w>
: 00.</w>
9/ 19
9/19 /
9/19/ 16
9/19/16 *</w>
**** *
***** davis@gmail.com.</w>
upti on,</w>
updat e?</w>
u ti
track s.</w>
tou ching</w>
time ..
time.. !</w>
themsel ves</w>
synchroniz ing"</w>
set ?</w>
rat ings</w>
pict ure</w>
p m</w>
mis s</w>
minu te</w>
mil lis
millis econ
millisecon ds</w>
journ al
issu es:</w>
indivi dually</w>
in a.</w>
happen ed,</w>
ex act
exact ly.</w>
encourag es</w>
di ar
detect ed?</w>
d ail
craz y.</w>
b ol
Vinc ent,</w>
Shel ley,</w>
Noti fications</w>
Gl axy</w>
An n
5 5%</w>
10 :00.</w>
"load ing"</w>
" synchronizing"</w>
writ ten</w>
week ly)</w>
stra ight,</w>
request s.</w>
rememb er,</w>
post ed</w>
pl s</w>
pattern .</w>
noti fied</w>
nic w</w>
maj or
interr uption,</w>
ha ve.</w>
ful ly.</w>
fo e</w>
dur ation,</w>
con trol
W ow,</w>
Neuro logist</w>
Mu ch</w>
L ind
Feed back
: )
4 5</w>
( daily</w>
treat ment!</w>
star -</w>
star ,</w>
sa .</w>
ren !</w>
mo di
interval s,</w>
flu ct
fluct u
el !</w>
eat en.</w>
dar ken</w>
cl ear</w>
aw ake.</w>
a head</w>
W ow</w>
Suggestion ".</w>
Sim ple</w>
Franco is@healint.com)</w>
Feedback "</w>
Denis e,</w>
( Francois@healint.com)</w>
" Leave</w>
wea ther.</w>
us ed?</w>
ti ve</w>
stop .</w>
simp li
screen s.</w>
rem inder
recommend .</w>
re lev
quick !</w>
prevent ative</w>
open s.</w>
motiv ates</w>
install ling</w>
illi an
emp loy
disco ver</w>
d !</w>
communic ation</w>
attac k
Y es</w>
V al,</w>
R es
9 pm</w>
3: 27</w>
“ night</w>
yn !</w>
ther !</w>
ta bl
success fully.</w>
st e
sc ien
scien ti
remedi es</w>
questi on
pro du
oun c
mode ”</w>
mo de,</w>
light ning</w>
l eng
jud g
jenny@healint.co m-</w>
in e!</w>
in a,</w>
compl ain
categori es</w>
bol t</w>
backgr ounds</w>
ann ounc
W ade</w>
TH an
Sad ly,</w>
Pat r
H e</w>
Davi d,</w>
An ything</w>
Am b
A ct
w w
u er</w>
ste p</w>
scienti sts</w>
scal e</w>
phys ici
ow n.</w>
of .</w>
non- Chron
non-Chron ic.</w>
need .</w>
nar row</w>
migran uer</w>
major ity.</w>
ma !</w>
judg ement.</w>
it !!</w>
inform ative</w>
ill y,</w>
icon s</w>
help ful
fam illy,</w>
f av
employ ee
employee s</w>
eas ily.</w>
devic e,</w>
announc ed?</w>
allow ing</w>
Wonder ful</w>
Res erve</w>
Q u
Lis a!</w>
y !!</w>
vari ation</w>
ure s</w>
t ne
pl eased</w>
ins ight
hist ory</w>
far !</w>
eth !</w>
dea ling</w>
conn ect</w>
Laura !</w>
Great !</w>
visit s.</w>
thor ough.</w>
s er</w>
relie ve</w>
ra !</w>
month .</w>
lo ves</w>
know s</w>
know ing</w>
ideas !</w>
i e.</w>
Su ch</w>
Nat al
Hea ther!</w>
B rit
’ re</w>
ure d</w>
th y</w>
suggesti on
relev ant</w>
rating s.</w>
not es,</w>
ha d.</w>
for m</w>
contri bu
compl aint
ca me</w>
al !</w>
St ac
K ay
Amand a,</w>
A N
5 /
valu able</w>
too l!</w>
inv alu
ha !</w>
h y
friend ly,</w>
fl ex
ey e</w>
er s.</w>
di ary,</w>
complain t</w>
b est
are d</w>
app !!!</w>
answ ers</w>
anne !</w>
Recomm end</w>
Rebec ca
F in
App .</w>
y -
tren ds.</w>
treat ments.</w>
t wea
sufferer s!</w>
rem ind</w>
iti es</w>
ici a!</w>
help ed.</w>
di ,</w>
d r.</w>
control .</w>
com for
bett er!</w>
be k
au ra
accur ate.</w>
Re bek
N ik
Jennif er.</w>
Fin ally</w>
! !
y es</w>
w .</w>
though ,</w>
they' re</w>
real ized</w>
re ward</w>
n 't.</w>
list ed.</w>
help s,</w>
h it</w>
fav or
episo des</w>
diagno sed</w>
dail y.</w>
cap t
are n't</w>
appoint ment.</w>
a bul
U ser</w>
Sh ann
S O</w>
M on
Deb bi
B ren
Ash ley!</w>
Act ually</w>
wor se</w>
vo t
track ers</w>
too l,</w>
thank ful</w>
star s-</w>
sen se</w>
recommend !</w>
ne uro</w>
n ear</w>
get .</w>
daught er</w>
customiz able</w>
c ity</w>
best !</w>
b on
amaz ing!</w>
ab or
a h!</w>
T HA
M ag
I mp
E R
D et
Cind y!</w>
though ts!</w>
tell s</w>
t ab
summ ar
suggesti ons!</w>
special ist
real ise</w>
read y</w>
pres s</w>
organ iz
or y.</w>
mea ls</w>
i al</w>
headaches !</w>
gi e!</w>
function ality</w>
flex i
feedback /
feature !</w>
ev ents</w>
el come</w>
di st
comprehensi ve.</w>
are as</w>
appreci ated.</w>
any way</w>
an a!</w>
allow ed</w>
activ ity</w>
W elcome</w>
U sing</w>
THA N
R ight</w>
Mic hel
I ve</w>
Ch ris
C our
C ol
C o
:- ).</w>
: D</w>
5/ 5</w>
w s</w>
vis its</w>
v s</w>
thorough ,</w>
support s</w>
sor t</w>
ro ll
review !!</w>
r ina!</w>
post drome</w>
other s.</w>
opti ons,</w>
n on</w>
m ind
l ed</w>
invalu able</w>
i a!</w>
favor ite</w>
f oun
ee !</w>
document ing</w>
disappoint ment</w>
customiz able.</w>
consist ent</w>
compli ments,</w>
chil d
caus es.</w>
Track er"</w>
Melis sa!</w>
L ou
F ran
Cour tne
pro fil
port s</w>
or der
oc curren
ment s!</w>
measu res</w>
manag ement</w>
lat er
is sing</w>
is e.</w>
hab its</w>
h op
frequenc y.</w>
fre e!</w>
en a,</w>
det ection.</w>
cre at
cor por
choo sing</w>
char ts</w>
b e.</w>
U !</w>
St ar
Sara h.</w>
Rachel !</w>
R u
P h
N ever</w>
Kristin !</w>
H ol
Det ail
' d</w>
wee ks.</w>
v e!</w>
special ist</w>
se !</w>
sch ed
provi des</w>
proto types</w>
o mis
ne !</w>
men op
manag ed</w>
l a!</w>
j ecti
inform ed</w>
in -
il !</w>
how ?</w>
hea r
grou ps</w>
graph s</w>
frequenc y,</w>
fantastic .</w>
expl ain
ee t</w>
e y!</w>
do es
di d
ch all
ch !</w>
asp ect</w>
Shar on!</w>
R ic
Michell e.</w>
Ka ren!</w>
G P</w>
Clai re!</w>
Car ri
Ca ther
Budd y,</w>
Brit t
Angel a!</w>
) )</w>
week s,</w>
vi e
us ual</w>
th .</w>
ter m</w>
t ori
t op
suggesti on!</w>
s oo
s k
record ed.</w>
pres ent
pap er.</w>
pain ful</w>
n !</w>
is e,</w>
is !</w>
in corpor
help ed,</w>
grap h</w>
frequ ently</w>
fig ured</w>
feedback/ suggestions</w>
ec t.</w>
e y.</w>
di aries</w>
day s!</w>
d es.</w>
d ers</w>
cycl e.</w>
cust omis
commun ity.</w>
br ings</w>
an tly</w>
an t
a h
T ake</w>
Christin a!</w>
Al lows</w>
:) ))</w>
... .</w>
way ?</w>
w as
vot es</w>
us p
u res
treat ments,</w>
trac t</w>
ti ons</w>
ron t</w>
provi der</w>
pres ent</w>
possi bly</w>
on e!</w>
month ly</w>
minut es</w>
mess ages</w>
med s.</w>
m ar
lat er"</w>
l ack</w>
help ing.</w>
headach e/
friend s.</w>
fel low</w>
experienc es</w>
eff ects</w>
complet ed</w>
be coming</w>
at e!</w>
^ )</w>
F i
Doct or</w>
20 1
(^ ^)</w>
( and</w>
your self.</w>
yo n
yet .</w>
w /
u ra
trigg ered</w>
track er!</w>
sync ing</w>
sub m
st om
res ource</w>
re du
progres s.</w>
perfect !</w>
much !!</w>
month s.</w>
lif es
level s.</w>
k ey</w>
it ating</w>
inclu des</w>
i a.</w>
h al
g ing</w>
f ront</w>
f ound.</w>
f abul
ep ti
en han
el abor
el .</w>
c ing</w>
are a.</w>
any !</w>
ani e.</w>
al though</w>
a th
a h.</w>
W e
V ick
V ic
V an
THan ks</w>
THAN K</w>
Stephan ie!</w>
Pl us</w>
Kell y!</w>
Kat e!</w>
Jac ki
Help ing</w>
H ell
Dani ell
Christin e!</w>
C yn
Bren d
Ap r
Al is
yo U!</w>
wh el
updat ed!</w>
t y</w>
sup por
summ aries</w>
simpli fy</w>
s usp
record s,</w>
record ,</w>
recommendati on</w>
rat ing!</w>
r ight,</w>
over whel
out side</w>
on al
modi fy</w>
mil d</w>
loo d</w>
list ing</w>
inform ati
in form</w>
ic e!</w>
http://goo.gl/ k
han g</w>
grou p</w>
gener ated</w>
fing er
event ually</w>
etc ,</w>
em issing</w>
easi er!</w>
comm ent!</w>
caus e.</w>
br illian
b lood</w>
attack s,</w>
appreci ates</w>
app t.</w>
aler t</w>
acc id
We ’re</w>
Vic tori
Stephan ie,</w>
S an
Keep ing</w>
Kati e!</w>
K err
Imp act</w>
Hell o</w>
H ei
El ain
Detail ed</w>
Christin a.</w>
Ca th
Bec k
As ks</w>
App !</w>
AN D</w>
y- to-
y l
wonder ing</w>
well -</w>
vis ual</w>
vari ety</w>
updat es!</w>
understan d.</w>
ti p
thought s-</w>
sy stem</w>
su rely</w>
stat s</w>
remedi es.</w>
o !</w>
month ,</w>
mo st.</w>
migraines /
migraines ...</w>
migraine ?</w>
medic ations.</w>
m al
lif e,</w>
it a!</w>
it !!!</w>
i qu
http://goo.gl/k 3
http://goo.gl/k3 cA
http://goo.gl/k3cA e
gu y
go .</w>
er g
eas y,</w>
dos age</w>
dis ability</w>
diar y
di !</w>
detail s,</w>
detail ed,</w>
detail .</w>
d eci
d eb
comp ared</w>
com pu
cl ea
bus y</w>
at ,</w>
ann a!</w>
and y</w>
an c
additi ons</w>
Trac y,</w>
Rebecca !</w>
P D
M onic
M at
Co mp
Ca it
B eth,</w>
( or</w>
" bother</w>
you' d</w>
ww w
www .
war ds</w>
thing s,</w>
t in
suggesti on,</w>
sufferer .</w>
specialist .</w>
soon er.</w>
slow ly</w>
simpl e.</w>
roll ing</w>
ren .</w>
ra rely</w>
r out
proto type</w>
proc ess,</w>
predic t</w>
pre p
pers onally</w>
pati ent
over s</w>
ori !</w>
mid st</w>
lo t,</w>
lin ked</w>
leng th</w>
l a</w>
k a!</w>
im .</w>
ill ness</w>
il itating</w>
http://goo.gl/ 8
how .</w>
health care</w>
headache/ migraine</w>
har d
happen ing.</w>
hand y.</w>
h or
h igh</w>
gi a</w>
exc ell
et ,</w>
episo de</w>
elabor ate</w>
dur ation.</w>
doc s</w>
deb ilitating</w>
compli ments!</w>
categ ory</w>
c al</w>
any way?</w>
an t.</w>
an a.</w>
ag ra
U se</w>
U I</w>
Trac y!</w>
Su ffere
Sh ir
Sara h</w>
Rachel .</w>
Neuro logist
Mari a!</w>
Mar y!</w>
Lau ra.</w>
Kimber ly,</w>
Juli e!</w>
J e
Inst ead</w>
Gi ves</w>
Emil y!</w>
Elizab eth!</w>
D ev
C ust
C overs</w>
C hel
Br illian
Andre a!</w>
An y
A dd
; -
1 /
- -</w>
" Add</w>
vis it.</w>
ver s
vari abl
ura l
typ ing</w>
tim el
th ,</w>
suppor tive</w>
suff er
st and</w>
sco re,</w>
s on
recommendati ons</w>
produ cti
physici an</w>
per mis
our s</w>
o li
now !</w>
necess ary.</w>
n a!</w>
more ?</w>
ma s</w>
ma inly</w>
loo ked</w>
li e!</w>
iz ing</w>
it ting</w>
ip e</w>
inten se</w>
i e</w>
habit s.</w>
ha ve,</w>
h aps</w>
fiel d</w>
fic ial</w>
feat ures
exam ple</w>
ex erc
episo de.</w>
el a.</w>
eas y-to-
e qu
do !</w>
des er
des cripti
conn ecti
confir m
con sul
col ours</w>
col ors</w>
co tt
chall eng
at ed!</w>
ari ly</w>
are ,</w>
appreci ated!</w>
all ing</w>
ahead .</w>
ac i
^ _
W ow
Trac y.</w>
S cott
S ab
Re ports</w>
Per haps</w>
N a
M and
L y
H E
Er ic
Elizab eth.</w>
Eas i
Bu ddi
All is
Al ways</w>
3 0
.co m</w>
👍 👍
☆ ☆
wor thy</w>
wh ite</w>
uall y,</w>
treat ing</w>
track ing!</w>
timel ine</w>
t ly,</w>
symptom s/
strugg led</w>
st ere
stere c
sp read
se iz
se en.</w>
s our
s on</w>
s ...
rec com
re hen
re b
progres s
possi bl
plac e.</w>
p en</w>
oun ding</w>
o s</w>
necess arily</w>
nec k</w>
n g</w>
migraine /
mig rain</w>
list en</w>
lea d</w>
l aid</w>
l a.</w>
it ...</w>
ing u
inform ation,</w>
in su
ici a.</w>
i es</w>
hal f</w>
h ope
g e,</w>
fast er,</w>
explain ing</w>
ever .</w>
es sing</w>
en abl
deser ves</w>
con vers
comp il
comm only</w>
comm ent
cl assi
capt ure</w>
c es.</w>
bene ficial</w>
bea uti
b un
b ear</w>
attac k,</w>
a ver</w>
Th or
T ere
S op
S and
Rob er
Paul a.</w>
Ne w
N eed
Migraine Buddy</w>
M ine</w>
M A
Ly di
Lis a.</w>
Kat rina!</w>
Jenn ,</w>
J !</w>
I S</w>
H andy</w>
G eor
Emil y.</w>
Did n't</w>
D or
Cust om
Comp rehen
Buddi es</w>
Be than
B o
A r
:) )</w>
: http://goo.gl/
1 5</w>
you ??</w>
wh en,</w>
wee k,</w>
wa iting</w>
w in
v ary</w>
u le</w>
tren d</w>
track er
to wards</w>
thr u</w>
ther ap
th !</w>
t ig
sy st
syst em
sw ipe</w>
support !!</w>
simpl ic
sha red</w>
sel ection</w>
sched ule</w>
s !!!</w>
run s</w>
ro l
repeat edly</w>
remo v
reminder s.</w>
regar d
re st
question s:</w>
pu l
pres cri
predic tions</w>
plan .</w>
pattern s!</w>
par a</w>
p s
p ill
p an
ob jecti
not ing</w>
navig ate.</w>
n u
mo ves</w>
mo re,</w>
migran es.</w>
migraine 's</w>
mean time</w>
manag ement.</w>
ma int
long .</w>
it t
informati ve.</w>
incorpor ate</w>
il ,</w>
hist ory.</w>
hard working</w>
g ri
g re
functi on.</w>
finger tip
features !</w>
everyth ing!</w>
ess enti
es /
en !!</w>
em ma!</w>
eas y!</w>
eas e.</w>
dru g
dist ingu
diar y!</w>
desig n.</w>
deci de</w>
customiz able,</w>
creat ors</w>
consider ation</w>
comprehensi ve,</w>
coll ected</w>
co ver</w>
clea n</w>
c ure</w>
bre ez
bl ed</w>
beg an</w>
bas is</w>
bas is.</w>
ar ound.</w>
app .
aler ts</w>
a while</w>
a b</w>
Wh o</w>
TH E</w>
T ry</w>
Sop hi
Nat as
Meg an!</w>
Lau ra,</w>
L es
Jo hn
Jo !</w>
F ree</w>
F inding</w>
Em ma!</w>
El se,</w>
Debbi e!</w>
D r
Cur ren
Comprehen sive</w>
Col le
Ch er
Ca therine,</w>
Awes ome
An it
5 0
yo nd</w>
yn .</w>
year .</w>
y le</w>
well -
w in</w>
user s!</w>
us !!</w>
u lat
tun e</w>
trigger s/
ti on.</w>
them !</w>
speci fy</w>
son 's</w>
slep t.</w>
sleep !</w>
simplic ity</w>
simpl er</w>
sign s</w>
sett ings
sel ecting</w>
s ely</w>
repeat ed</w>
rememb ering</w>
relat ed.</w>
ref er</w>
r s!</w>
print ed</w>
pressu re,</w>
present ed</w>
pr act
pl ann
personal ize</w>
personal iz
pain ?</w>
p in</w>
over .</w>
organ ize</w>
oo oo
on to</w>
on n
off ers</w>
of ,</w>
not ebook</w>
n y</w>
n eat</w>
my al
mean ing</w>
match es</w>
ma p</w>
lo l</w>
lo b
list ening</w>
lin es</w>
lifes aver</w>
lif est
l ying</w>
l ed
jenny@healint.co m.
j our
it able</w>
is@healint.co m?</w>
intr o
inf o,</w>
idea !</w>
i di
hy dr
ha .</w>
h im.</w>
guy s!</w>
gu ide</w>
g lob
g ain
fin al</w>
fi bro
fabul ous</w>
ey es</w>
ev i
et .</w>
es s!</w>
enhan c
end er</w>
des erve</w>
d rs</w>
contri but
consul t
complaint s</w>
commun ity!</w>
co -
co- foun
caus es,</w>
bo x</w>
b ook</w>
avail able.</w>
at ure</w>
as k.</w>
ar ti
ar ge</w>
app 's</w>
amazing ly</w>
Wend y!</w>
V ER
Tany a!</w>
Sus an!</w>
Sar a!</w>
San di,</w>
Samanth a!</w>
S ett
S e
Rebek ah,</w>
RE A
R hon
P e
No w,</w>
Nicol e.</w>
MA Z
M en
M ad
Loo ks</w>
Lis a,</w>
Lau ren!</w>
L ac
Kel ly.</w>
K y
In credi
Hea lint
H oli
H ar
GP .</w>
F antastic
Exc ell
E very</w>
Davi d.</w>
Custom iz
Curren tly,</w>
Carri e!</w>
B i
Any way,</w>
Amb er,</w>
A my</w>
A MAZ
A C
:- )
5- stars,</w>
5 !</w>
( like</w>
y a.</w>
x i
work ed,</w>
wor se,</w>
war ning</w>
w al
uti liz
us b
updat es
updat ed.</w>
umb s</w>
um m
to x</w>
to ,</w>
tim ing</w>
ther ing</w>
th o</w>
tea m
tabl et</w>
sy !</w>
subm it</w>
su ring</w>
su itable</w>
strugg le</w>
stom ach</w>
st ati
solu te</w>
situ ation</w>
sh eet</w>
sensiti v
sa w</w>
sa v
s ite</w>
s in
s ea
s cor
scor e</w>
ro ot</w>
respon ses</w>
record ing.</w>
recommend ed.</w>
re ar
ran ging</w>
ra ise</w>
qu eri
qu anti
ps S
psS 1
proto typing</w>
proc ess.</w>
pro drome</w>
prevent ati
plac es</w>
physici an.</w>
pattern ,</w>
pain -
p ay
pay ment</w>
organiz ed.</w>
order .</w>
or ,</w>
opti on,</w>
off ice.</w>
occurren ces</w>
not es"</w>
non- migraine</w>
neurologist ,</w>
menop a
loc al</w>
lin ks</w>
lifest yle</w>
le y.</w>
journal s</w>
insu ran
insight ful</w>
in al</w>
impres sed.</w>
implement ing.</w>
ill ing</w>
ill ,</w>
ig em
igem inal</w>
i 'd</w>
http://goo.gl/8 psS1
help ed!</w>
h usb
h e
gu id
gra de</w>
for got</w>
fo rec
fiel ds</w>
factor s.</w>
export s</w>
excell ent.</w>
exam pl
ett e.</w>
etc ...</w>
est abl
essenti al</w>
episo des.</w>
enabl ed</w>
en ough
eff ect</w>
ee .</w>
eat ing</w>
e -</w>
don e!</w>
do ,</w>
distingu ish</w>
defaul t</w>
day /
complaint s.</w>
comm ent,</w>
co-foun der</w>
chron ic
care fully</w>
bun ch</w>
budd y!</w>
b oo
b it.</w>
ation s!</w>
ation !</w>
as su
ar ,</w>
appea l</w>
app ly</w>
ann a.</w>
alon e.</w>
ag o!</w>
aff ected</w>
activ ity.</w>
accur ately.</w>
ac k
a qu
VER Y</w>
U PD
UPD A
Tony a.</w>
Tar a!</w>
Tamm y,</w>
Steph anie.</w>
Shann on,</w>
S a
Recomm ended</w>
Re port</w>
Rac ha
Qu ick</w>
P am
Neurologist .</w>
Nan c
Melis sa.</w>
Mat the
M ight</w>
Lo ving</w>
Kimber ly.</w>
Kay la!</w>
K im,</w>
Jo d
Jessic a</w>
Holi days!</w>
Help ful.</w>
H T
Gab ri
G REA
E v
Daw n!</w>
D av
B rand
8 .</w>
4 0
2 .
/ -</w>
. "</w>
+ /-</w>
' ve</w>
yon e.</w>
x .</w>
wh en.</w>
w i
w ere
w !</w>
vi des</w>
variabl es</w>
vari ations</w>
upgra ded</w>
up coming</w>
underst and
un e</w>
u n</w>
u m.</w>
tri es</w>
track ing
tou ch!</w>
this !!</w>
that s</w>
tak en,</w>
tab s</w>
ta ble.</w>
t e
symp a
susp ected</w>
suppos ed</w>
su re.</w>
stra ight
start s,</w>
st ab
sp it
some what</w>
soci al</w>
sever ity,</w>
separ ately</w>
sel ecti
se qu
sa ver</w>
s ci
s ay
rol l.</w>
ro p</w>
respon ded</w>
reminder .</w>
ref eren
recommend ed!</w>
rando m</w>
question n
questionn ai
professi onal
prev enti
prescri bed</w>
pre gn
pleas antly</w>
patient s!</w>
parti c
partic ular</w>
pain s.</w>
p or</w>
p ho
over all,</w>
otherwis e,</w>
oth y!</w>
on e
om en
occur s</w>
notic ing</w>
new "</w>
n ur
n erve</w>
n '
myal gia</w>
mo ment
moment ?</w>
mo de</w>
menop ause</w>
maint ain</w>
m eet</w>
m ee
low er</w>
lim ents</w>
level s,</w>
last .</w>
kind s</w>
k ed.</w>
k a,</w>
journ al,</w>
interr up
inter v
int ere
intere st</w>
im peri
im in
igh t.</w>
http://goo.gl/k3cAe 8.</w>
http://goo.gl/ I
hope ful</w>
ho spit
ho ld</w>
headaches ...</w>
head .</w>
happen .</w>
ha ble</w>
g or
g ett
g ender</w>
future !</w>
for um.</w>
fin ds</w>
fe ed</w>
ever !</w>
event s.</w>
ett e!</w>
est im
en s
em o
ed ...</w>
ed '</w>
e )</w>
dra w
down ,</w>
does n't.</w>
di .</w>
detail !</w>
der .</w>
day !!</w>
d y.</w>
crash es.</w>
con sci
con grat
comp liments</w>
comfor tabl
com b
ca ffe
buil d</w>
brillian t.</w>
b est,</w>
at ing.</w>
as h
ar a,</w>
appro ach</w>
app ...
app ),</w>
ann ah!</w>
an xi
again st</w>
ag e,</w>
ac tly</w>
ab solute</w>
a im
Wow !</w>
V i
Thank s!!</w>
T y
T ina.</w>
Suffere rs!</w>
Sha un
S umm
S i
S how
Rhon d
Pro vides</w>
Paul a!</w>
P .</w>
Need s</w>
Natal ie,</w>
Mel an
Mar t
Mand y!</w>
Mag gie!</w>
Lor rain
Lind a!</w>
Kim .</w>
Kim !</w>
Jas min
It 'll</w>
Incredi bly</w>
HE L
Ex actly</w>
ES T</w>
E ri
Dor othy!</w>
Di ana,</w>
Des i
Daw n.</w>
Daniell e!</w>
D rs</w>
D rop</w>
Customiz able</w>
Christin e.</w>
Cher y
Cather ine!</w>
Cath y!</w>
Cait lin
Budd y
Beck y!</w>
B ett
B P</w>
Andre a.</w>
Al ice!</w>
- 1
- -
your s.</w>
you ~</w>
y a!</w>
wor st</w>
wal ks</w>
w ou
valu able.</w>
us -</w>
ural gi
u e</w>
twea ks</w>
tri ed,</w>
tremend ousl
traditi onal</w>
track !</w>
too k.</w>
tig o</w>
th ers</w>
tem per
tea m,</w>
success fully</w>
stic s</w>
stan ding</w>
st rat
sor ts</w>
so !</w>
sm ile</w>
sm ar
screen .
sc roll.</w>
s ends</w>
s eas
s ay.</w>
ru ly</w>
ru ci
ro o
review ing</w>
report s!</w>
repeat ed
repeated ly.</w>
ren he
reas suring</w>
rear ranging</w>
real ity</w>
re ac
reac hable</w>
questi ons!</w>
qu i
pu ll
preventati ves</w>
prec ise.</w>
pr oud</w>
plan ning</w>
pi ec
per c
par t
pan e</w>
pain- free</w>
p ea
over ,</w>
or s.</w>
or ders</w>
onset ,</w>
on g</w>
on -</w>
off ice</w>
occur red</w>
occur .</w>
nur se</w>
not es!</w>
n ing.</w>
n a.</w>
migraineur s.</w>
migraines .
migraine -</w>
ma x</w>
m itt
m ir
m ari
low n</w>
low est</w>
los s</w>
l ess.</w>
l arge</w>
know led
k er</w>
inter mitt
improv e?</w>
im men
ill ed</w>
il .</w>
igh ting</w>
ideas -</w>
id s</w>
ici ent</w>
ic ation</w>
i lo
i a</w>
hy sterec
hor mon
here :http://goo.gl/
helpful !!</w>
help -</w>
hear !</w>
headaches/ migraines.</w>
h ind</w>
h d</w>
gener ate</w>
ga thered</w>
g row</w>
forget .</w>
fibro myalgia</w>
f on
exten sive</w>
explan ation</w>
ex change</w>
ev ent</w>
essi ble</w>
error s.</w>
er red</w>
enn e!</w>
emo ti
el op
el imin
effecti vely.</w>
eff ic
eff ect
dro me
do /
disappoint ments</w>
dis orders</w>
difficul t.</w>
diagno se</w>
di agra
developer s!</w>
detail ed!</w>
des criptions</w>
der s.</w>
dd ly</w>
daught er
cycl e,</w>
customiz e.</w>
cu te</w>
cre ep
contribu ting</w>
contribu te</w>
contact@healint.co m)</w>
confid ent</w>
comm on.</w>
comfortabl e!</w>
co vered</w>
classi fy</w>
child 's</w>
chil d</w>
charg e,</w>
bl e,</w>
bec ame</w>
be hind</w>
bas es</w>
b lown</w>
b ad.</w>
aura s,</w>
ari ,</w>
ap s.</w>
all y!</w>
al o
al e</w>
ah renhe
ag o,</w>
ad hd</w>
ach es</w>
acc essible</w>
W aiting</w>
Van es
Tiff any!</w>
T ruly</w>
Sy l
Suz anne!</w>
St ore</w>
Ph il!</w>
Patr icia!</w>
P res
O ver</w>
Monic a!</w>
Michael !</w>
Mar ci
M au
M a
M E
Liz !</w>
Lis a</w>
Kerr y.</w>
Kath le
Kar la,</w>
K ryst
K or
K ari,</w>
Jodi !</w>
Jennif er</w>
Jam es!</w>
Jacki e.</w>
I T
Hel lo,</w>
Hel en,</w>
Hel en!</w>
H ard</w>
Go d</w>
G etting</w>
F el
F ahrenhe
Ex port</w>
Eric a!</w>
Er in,</w>
Easi er</w>
Dev elop
D an
Cryst al!</w>
Clai re.</w>
Ch ri
Ch an
C at
B re
B ran
B et
B en
B EST</w>
Andre a,</w>
Amb er.</w>
Alex andra,</w>
A W
A !</w>
4 ,</w>
. e.</w>
. The</w>
* *</w>
( reachable</w>
" notes"</w>
you ng</w>
y rs</w>
www. migrainebuddy
www.migrainebuddy .com
wor ry</w>
was ,</w>
war d.</w>
understan d,</w>
underst ands</w>
un i
uni que</w>
u !</w>
typ e.</w>
twea k</w>
trigger s...</w>
trigger ,</w>
tremend ously</w>
tr ate</w>
to my</w>
to m.</w>
ta il
tail or</w>
t s,</w>
t ally</w>
symptom ,</w>
symp tom.</w>
sur r
suff icient</w>
sub tract</w>
sub sequ
su its</w>
su it</w>
stres s.</w>
strat egi
step .</w>
sp eed
sour ces</w>
soon er!</w>
some how</w>
soluti ons.</w>
sk ip
simpli fied</w>
sign i
signi fic
si ble</w>
show .</w>
sh ee
seri ously</w>
see king</w>
see ?</w>
screen. If</w>
sched ul
s ph
sph er
spher ic</w>
s mil
s essi
s ad
s ;</w>
ro w
ro pract
resear ch.</w>
requ ests</w>
remov e?</w>
remain s</w>
reli ev
rel ay</w>
redu ces</w>
preventi ve</w>
prep ared</w>
pregn anc
pop ul
point ing</w>
pleas ant</w>
plann ed</w>
pl us.</w>
pill s,</w>
phys ical</w>
perfec t,</w>
perc ent
per tin
pap er
p ast
p ad</w>
overwhel m
op tim
objecti ve</w>
o Q
oQ Et
oQEt 2
not eboo
night !</w>
neurologist !</w>
n er
n ail</w>
much ,</w>
monit ors</w>
mo spheric</w>
migran e
mig r
mee ting</w>
measu re
max im
man y.</w>
ma de.</w>
m es
list s</w>
leng thy</w>
le y</w>
le g
later '</w>
last ,</w>
l eep
l ab
kid s'</w>
ki !</w>
k s,</w>
k s!</w>
jour ne
it e,</w>
issu e!</w>
is ha!</w>
intro du
interrup t
insuran ce</w>
inst ance</w>
insight ful.</w>
in jecti
improv ed.</w>
import ant.</w>
im m
im !</w>
ick !</w>
ici a!!</w>
ic k.</w>
i ropract
i ous</w>
i .e.</w>
hysterec tomy</w>
hydr ation</w>
http://goo.gl/ oQEt2
http:// www.migrainebuddy.com
help full</w>
health .</w>
headach e...</w>
habit s,</w>
grou p
glob ally.</w>
gl ance</w>
gi e.</w>
gener ally</w>
ga thers</w>
forum :</w>
fluctu ates</w>
flexi bility</w>
fingertip s.</w>
fing er</w>
fast .</w>
fantastic ,</w>
famili ar</w>
faceboo k
fac t,</w>
f ran
f illing</w>
f et
expect ations</w>
expect ations!</w>
ex tract</w>
ettings "</w>
eri !</w>
emoti onal</w>
ea ch
draw back</w>
dra st
down time</w>
do/ change</w>
dist ur
dis p
differen t.</w>
di rect
de gre
dd ,</w>
daughter 's</w>
d ed.</w>
cre en</w>
convers ations</w>
contac ted</w>
consci ous</w>
conditi on,</w>
comp on
clo sely</w>
cho se</w>
cho ic
chat s</w>
challeng ing,</w>
categ ory.</w>
car d.</w>
capt ures</w>
c e!</w>
c alling</w>
bre a
bon us</w>
bo x.</w>
bi e!</w>
b y.</w>
b y!</w>
b /
au ra.</w>
at mospheric</w>
app ..</w>
app ..
al i
adv ise</w>
adv ice</w>
adjust ing</w>
activiti es.</w>
^_ ^</w>
Y TH
Trac ey,</w>
To tally</w>
Terri ,</w>
TH IS</w>
T er
T ay
Syl vi
Sup port</w>
Star s</w>
Stac ey.</w>
Shir ley!</w>
Sab rina!</w>
Sa mu
S on
S hell
Ren ee!</w>
Rebecca .</w>
Pro file</w>
P o
P et
Nik i.</w>
Michael .</w>
Med ication</w>
Mau reen,</w>
Mari a.</w>
M ist
M ere
M ea
M ake</w>
Lu c
Lou ise,</w>
Lau ren.</w>
L ori!</w>
Ka ther
K am
Jessic a.</w>
Jas on!</w>
Jam ie!</w>
ING .</w>
I F</w>
Hol ly!</w>
HEL P
H ome</w>
H il
Gr ac
Gl end
G et</w>
G en
Fro m</w>
F ive</w>
F ai
F ab</w>
F U
Elain e!</w>
ES O
E val
E ll
Dian a!</w>
Chris !</w>
Chri stop
Chel sea
Che ers</w>
Cather ine.</w>
Carol ine!</w>
C el
Bu t,</w>
Bo th</w>
B ra
B ill,</w>
B I
An gie!</w>
Allis on!</w>
AW ESO
AP P</w>
A ri
? )</w>
;- )</w>
9 2.
2 ,</w>
1 6</w>
0 0</w>
/1 5
... this</w>
. Jenny</w>
( even</w>
! !!!!</w>
ç a
www. facebook
www.facebook .com
www.facebook.com /migraine
www.facebook.com/migraine buddy
wou ld
wor st.</w>
we ’re</w>
w eb
visi on</w>
versi on,</w>
v ating</w>
uralgi a,</w>
updat e
u do
u .</w>
tw ee
tur ns</w>
trigger !</w>
treat ment,</w>
tou ch
too ?</w>
to l
tol erate</w>
ti ple</w>
ti es</w>
ti ck</w>
through ,</w>
thro ws</w>
thought ful</w>
thorough ly</w>
th umbs</w>
test ed.</w>
ten si
techn iqu
tak en
tak e.</w>
ta !</w>
t um
surpris ed.</w>
sup er
suffer ing,</w>
suff ering.</w>
sudd en</w>
subsequ ent</w>
stop watch</w>
st age</w>
sp ent</w>
so me.</w>
sm all
slow .</w>
sin us</w>
si e!</w>
shi p</w>
sha me</w>
sel ect
see .</w>
sear ched</w>
scal e,</w>
sc roll</w>
sa ver.</w>
ruci al</w>
right ness</w>
review -</w>
reminder s,</w>
rememb er.</w>
relat ing</w>
rel ation
relation ship</w>
regard less</w>
referen ce</w>
recogn izing</w>
re war
rain es.</w>
r a</w>
questionnai re</w>
queri es,</w>
quanti fy</w>
qu al
pu ts</w>
pr acti
pl ea
plea sure</w>
pin pointing</w>
phon e's</w>
ph en
pap er!</w>
p ills</w>
p .</w>
ou s,</w>
or !</w>
oppos ite</w>
on estly</w>
ol d.</w>
off er,</w>
o mas</w>
o ffere
offere d</w>
nu er
new s!</w>
n er</w>
motiv ating</w>
mo der
mis sion</w>
migraines/ headaches</w>
migraines ..</w>
migraines ).</w>
migraine ...</w>
migrain ers.</w>
measure s.</w>
mean ing
mea l</w>
maxim um</w>
mari e,</w>
mal e</w>
ma s
ma k
ma .</w>
m a</w>
lo s</w>
li es</w>
li .</w>
layou t.</w>
l d.</w>
knowled g
j a!</w>
it :</w>
is sa!</w>
is e!</w>
inv ol
interrupt ed'</w>
injecti ons</w>
ind er</w>
incredi ble</w>
in- app</w>
in ti
impres s
imperi al
ima ges</w>
ig u
idi omas</w>
idea -</w>
id ,</w>
ick y</w>
i e!!</w>
hur t
ho mes
has sl
han d,</w>
h t</w>
guid es</w>
graph s.</w>
good !</w>
goo.gl/ IG
goo.gl/IG R
goo.gl/IGR B
goo.gl/IGRB Q
goo.gl/IGRBQ W</w>
go ing,</w>
go !</w>
glitch es</w>
gi e,</w>
gett ing.</w>
ga thering</w>
fran ça
forec ast</w>
fore ver</w>
for ,</w>
for !</w>
food /
flexi bil
fi r</w>
fi ddly</w>
f y.</w>
f ee
ext ended</w>
experienc ing.</w>
exp lo
exerc ise,</w>
event ,</w>
etc ...
et er</w>
establ ish</w>
es p</w>
erg y</w>
enough !</w>
end ed.</w>
en a!</w>
en )</w>
email -</w>
elimin ate</w>
el ed</w>
el a!</w>
effor t.</w>
effecti ve.</w>
